{"added_tokens":[{"content":"<|endoftext|>","id":0,"lstrip":false,"normalized":false,"rstrip":false,"single_word":false,"special":true},{"content":"<|pad|>","id":1,"lstrip":false,"normalized":false,"rstrip":false,"single_word":false,"special":true},{"content":"<|bos|>","id":2,"lstrip":false,"normalized":false,"rstrip":false,"single_word":false,"special":true},{"content":"<|im_start|>","id":3,"lstrip":false,"normalized":false,"rstrip":false,"single_word":false,"special":true},{"content":"<|im_end|>","id":4,"lstrip":false,"normalized":false,"rstrip":false,"single_word":false,"special":true},{"content":"<|fim_prefix|>","id":5,"lstrip":false,"normalized":false,"rstrip":false,"single_word":false,"special":true},{"content":"<|fim_middle|>","id":6,"lstrip":false,"normalized":false,"rstrip":false,"single_word":false,"special":true},{"content":"<|fim_suffix|>","id":7,"lstrip":false,"normalized":false,"rstrip":false,"single_word":false,"special":true},{"content":"<|fim_pad|>","id":8,"lstrip":false,"normalized":false,"rstrip":false,"single_word":false,"special":true},{"content":"<|repo_name|>","id":9,"lstrip":false,"normalized":false,"rstrip":false,"single_word":false,"special":true},{"content":"<|file_sep|>","id":10,"lstrip":false,"normalized":false,"rstrip":false,"single_word":false,"special":true},{"content":"<|think_start|>","id":11,"lstrip":false,"normalized":false,"rstrip":false,"single_word":false,"special":true},{"content":"<|think_end|>","id":12,"lstrip":false,"normalized":false,"rstrip":false,"single_word":false,"special":true},{"content":"<|tool_call_start|>","id":13,"lstrip":false,"normalized":false,"rstrip":false,"single_word":false,"special":true},{"content":"<|tool_call_end|>","id":14,"lstrip":false,"normalized":false,"rstrip":false,"single_word":false,"special":true},{"content":"<|tool_response_start|>","id":15,"lstrip":false,"normalized":false,"rstrip":false,"single_word":false,"special":true},{"content":"<|tool_response_end|>","id":16,"lstrip":false,"normalized":false,"rstrip":false,"single_word":false,"special":true},{"content":"<|reserved_special_000|>","id":17,"lstrip":false,"normalized":false,"rstrip":false,"single_word":false,"special":true},{"content":"<|reserved_special_001|>","id":18,"lstrip":false,"normalized":false,"rstrip":false,"single_word":false,"special":true},{"content":"<|reserved_special_002|>","id":19,"lstrip":false,"normalized":false,"rstrip":false,"single_word":false,"special":true},{"content":"<|reserved_special_003|>","id":20,"lstrip":false,"normalized":false,"rstrip":false,"single_word":false,"special":true},{"content":"<|reserved_special_004|>","id":21,"lstrip":false,"normalized":false,"rstrip":false,"single_word":false,"special":true},{"content":"<|reserved_special_005|>","id":22,"lstrip":false,"normalized":false,"rstrip":false,"single_word":false,"special":true},{"content":"<|reserved_special_006|>","id":23,"lstrip":false,"normalized":false,"rstrip":false,"single_word":false,"special":true},{"content":"<|reserved_special_007|>","id":24,"lstrip":false,"normalized":false,"rstrip":false,"single_word":false,"special":true},{"content":"<|reserved_special_008|>","id":25,"lstrip":false,"normalized":false,"rstrip":false,"single_word":false,"special":true},{"content":"<|reserved_special_009|>","id":26,"lstrip":false,"normalized":false,"rstrip":false,"single_word":false,"special":true},{"content":"<|reserved_special_010|>","id":27,"lstrip":false,"normalized":false,"rstrip":false,"single_word":false,"special":true},{"content":"<|reserved_special_011|>","id":28,"lstrip":false,"normalized":false,"rstrip":false,"single_word":false,"special":true},{"content":"<|reserved_special_012|>","id":29,"lstrip":false,"normalized":false,"rstrip":false,"single_word":false,"special":true},{"content":"<|reserved_special_013|>","id":30,"lstrip":false,"normalized":false,"rstrip":false,"single_word":false,"special":true},{"content":"<|reserved_special_014|>","id":31,"lstrip":false,"normalized":false,"rstrip":false,"single_word":false,"special":true},{"content":"<|reserved_special_015|>","id":32,"lstrip":false,"normalized":false,"rstrip":false,"single_word":false,"special":true},{"content":"<|reserved_special_016|>","id":33,"lstrip":false,"normalized":false,"rstrip":false,"single_word":false,"special":true},{"content":"<|reserved_special_017|>","id":34,"lstrip":false,"normalized":false,"rstrip":false,"single_word":false,"special":true},{"content":"<|reserved_special_018|>","id":35,"lstrip":false,"normalized":false,"rstrip":false,"single_word":false,"special":true},{"content":"<|reserved_special_019|>","id":36,"lstrip":false,"normalized":false,"rstrip":false,"single_word":false,"special":true},{"content":"<|reserved_special_020|>","id":37,"lstrip":false,"normalized":false,"rstrip":false,"single_word":false,"special":true},{"content":"<|reserved_special_021|>","id":38,"lstrip":false,"normalized":false,"rstrip":false,"single_word":false,"special":true},{"content":"<|reserved_special_022|>","id":39,"lstrip":false,"normalized":false,"rstrip":false,"single_word":false,"special":true},{"content":"<|reserved_special_023|>","id":40,"lstrip":false,"normalized":false,"rstrip":false,"single_word":false,"special":true},{"content":"<|reserved_special_024|>","id":41,"lstrip":false,"normalized":false,"rstrip":false,"single_word":false,"special":true},{"content":"<|reserved_special_025|>","id":42,"lstrip":false,"normalized":false,"rstrip":false,"single_word":false,"special":true},{"content":"<|reserved_special_026|>","id":43,"lstrip":false,"normalized":false,"rstrip":false,"single_word":false,"special":true},{"content":"<|reserved_special_027|>","id":44,"lstrip":false,"normalized":false,"rstrip":false,"single_word":false,"special":true},{"content":"<|reserved_special_028|>","id":45,"lstrip":false,"normalized":false,"rstrip":false,"single_word":false,"special":true},{"content":"<|reserved_special_029|>","id":46,"lstrip":false,"normalized":false,"rstrip":false,"single_word":false,"special":true},{"content":"<|reserved_special_030|>","id":47,"lstrip":false,"normalized":false,"rstrip":false,"single_word":false,"special":true},{"content":"<|reserved_special_031|>","id":48,"lstrip":false,"normalized":false,"rstrip":false,"single_word":false,"special":true},{"content":"<|reserved_special_032|>","id":49,"lstrip":false,"normalized":false,"rstrip":false,"single_word":false,"special":true},{"content":"<|reserved_special_033|>","id":50,"lstrip":false,"normalized":false,"rstrip":false,"single_word":false,"special":true},{"content":"<|reserved_special_034|>","id":51,"lstrip":false,"normalized":false,"rstrip":false,"single_word":false,"special":true},{"content":"<|reserved_special_035|>","id":52,"lstrip":false,"normalized":false,"rstrip":false,"single_word":false,"special":true},{"content":"<|reserved_special_036|>","id":53,"lstrip":false,"normalized":false,"rstrip":false,"single_word":false,"special":true},{"content":"<|reserved_special_037|>","id":54,"lstrip":false,"normalized":false,"rstrip":false,"single_word":false,"special":true},{"content":"<|reserved_special_038|>","id":55,"lstrip":false,"normalized":false,"rstrip":false,"single_word":false,"special":true},{"content":"<|reserved_special_039|>","id":56,"lstrip":false,"normalized":false,"rstrip":false,"single_word":false,"special":true},{"content":"<|reserved_special_040|>","id":57,"lstrip":false,"normalized":false,"rstrip":false,"single_word":false,"special":true},{"content":"<|reserved_special_041|>","id":58,"lstrip":false,"normalized":false,"rstrip":false,"single_word":false,"special":true},{"content":"<|reserved_special_042|>","id":59,"lstrip":false,"normalized":false,"rstrip":false,"single_word":false,"special":true},{"content":"<|reserved_special_043|>","id":60,"lstrip":false,"normalized":false,"rstrip":false,"single_word":false,"special":true},{"content":"<|reserved_special_044|>","id":61,"lstrip":false,"normalized":false,"rstrip":false,"single_word":false,"special":true},{"content":"<|reserved_special_045|>","id":62,"lstrip":false,"normalized":false,"rstrip":false,"single_word":false,"special":true},{"content":"<|reserved_special_046|>","id":63,"lstrip":false,"normalized":false,"rstrip":false,"single_word":false,"special":true},{"content":"<|reserved_special_047|>","id":64,"lstrip":false,"normalized":false,"rstrip":false,"single_word":false,"special":true},{"content":"<|reserved_special_048|>","id":65,"lstrip":false,"normalized":false,"rstrip":false,"single_word":false,"special":true},{"content":"<|reserved_special_049|>","id":66,"lstrip":false,"normalized":false,"rstrip":false,"single_word":false,"special":true},{"content":"<|reserved_special_050|>","id":67,"lstrip":false,"normalized":false,"rstrip":false,"single_word":false,"special":true},{"content":"<|reserved_special_051|>","id":68,"lstrip":false,"normalized":false,"rstrip":false,"single_word":false,"special":true},{"content":"<|reserved_special_052|>","id":69,"lstrip":false,"normalized":false,"rstrip":false,"single_word":false,"special":true},{"content":"<|reserved_special_053|>","id":70,"lstrip":false,"normalized":false,"rstrip":false,"single_word":false,"special":true},{"content":"<|reserved_special_054|>","id":71,"lstrip":false,"normalized":false,"rstrip":false,"single_word":false,"special":true},{"content":"<|reserved_special_055|>","id":72,"lstrip":false,"normalized":false,"rstrip":false,"single_word":false,"special":true},{"content":"<|reserved_special_056|>","id":73,"lstrip":false,"normalized":false,"rstrip":false,"single_word":false,"special":true},{"content":"<|reserved_special_057|>","id":74,"lstrip":false,"normalized":false,"rstrip":false,"single_word":false,"special":true},{"content":"<|reserved_special_058|>","id":75,"lstrip":false,"normalized":false,"rstrip":false,"single_word":false,"special":true},{"content":"<|reserved_special_059|>","id":76,"lstrip":false,"normalized":false,"rstrip":false,"single_word":false,"special":true},{"content":"<|reserved_special_060|>","id":77,"lstrip":false,"normalized":false,"rstrip":false,"single_word":false,"special":true},{"content":"<|reserved_special_061|>","id":78,"lstrip":false,"normalized":false,"rstrip":false,"single_word":false,"special":true},{"content":"<|reserved_special_062|>","id":79,"lstrip":false,"normalized":false,"rstrip":false,"single_word":false,"special":true},{"content":"<|reserved_special_063|>","id":80,"lstrip":false,"normalized":false,"rstrip":false,"single_word":false,"special":true},{"content":"<|reserved_special_064|>","id":81,"lstrip":false,"normalized":false,"rstrip":false,"single_word":false,"special":true},{"content":"<|reserved_special_065|>","id":82,"lstrip":false,"normalized":false,"rstrip":false,"single_word":false,"special":true},{"content":"<|reserved_special_066|>","id":83,"lstrip":false,"normalized":false,"rstrip":false,"single_word":false,"special":true},{"content":"<|reserved_special_067|>","id":84,"lstrip":false,"normalized":false,"rstrip":false,"single_word":false,"special":true},{"content":"<|reserved_special_068|>","id":85,"lstrip":false,"normalized":false,"rstrip":false,"single_word":false,"special":true},{"content":"<|reserved_special_069|>","id":86,"lstrip":false,"normalized":false,"rstrip":false,"single_word":false,"special":true},{"content":"<|reserved_special_070|>","id":87,"lstrip":false,"normalized":false,"rstrip":false,"single_word":false,"special":true},{"content":"<|reserved_special_071|>","id":88,"lstrip":false,"normalized":false,"rstrip":false,"single_word":false,"special":true},{"content":"<|reserved_special_072|>","id":89,"lstrip":false,"normalized":false,"rstrip":false,"single_word":false,"special":true},{"content":"<|reserved_special_073|>","id":90,"lstrip":false,"normalized":false,"rstrip":false,"single_word":false,"special":true},{"content":"<|reserved_special_074|>","id":91,"lstrip":false,"normalized":false,"rstrip":false,"single_word":false,"special":true},{"content":"<|reserved_special_075|>","id":92,"lstrip":false,"normalized":false,"rstrip":false,"single_word":false,"special":true},{"content":"<|reserved_special_076|>","id":93,"lstrip":false,"normalized":false,"rstrip":false,"single_word":false,"special":true},{"content":"<|reserved_special_077|>","id":94,"lstrip":false,"normalized":false,"rstrip":false,"single_word":false,"special":true},{"content":"<|reserved_special_078|>","id":95,"lstrip":false,"normalized":false,"rstrip":false,"single_word":false,"special":true},{"content":"<|reserved_special_079|>","id":96,"lstrip":false,"normalized":false,"rstrip":false,"single_word":false,"special":true},{"content":"<|reserved_special_080|>","id":97,"lstrip":false,"normalized":false,"rstrip":false,"single_word":false,"special":true},{"content":"<|reserved_special_081|>","id":98,"lstrip":false,"normalized":false,"rstrip":false,"single_word":false,"special":true},{"content":"<|reserved_special_082|>","id":99,"lstrip":false,"normalized":false,"rstrip":false,"single_word":false,"special":true},{"content":"<|reserved_special_083|>","id":100,"lstrip":false,"normalized":false,"rstrip":false,"single_word":false,"special":true},{"content":"<|reserved_special_084|>","id":101,"lstrip":false,"normalized":false,"rstrip":false,"single_word":false,"special":true},{"content":"<|reserved_special_085|>","id":102,"lstrip":false,"normalized":false,"rstrip":false,"single_word":false,"special":true},{"content":"<|reserved_special_086|>","id":103,"lstrip":false,"normalized":false,"rstrip":false,"single_word":false,"special":true},{"content":"<|reserved_special_087|>","id":104,"lstrip":false,"normalized":false,"rstrip":false,"single_word":false,"special":true},{"content":"<|reserved_special_088|>","id":105,"lstrip":false,"normalized":false,"rstrip":false,"single_word":false,"special":true},{"content":"<|reserved_special_089|>","id":106,"lstrip":false,"normalized":false,"rstrip":false,"single_word":false,"special":true},{"content":"<|reserved_special_090|>","id":107,"lstrip":false,"normalized":false,"rstrip":false,"single_word":false,"special":true},{"content":"<|reserved_special_091|>","id":108,"lstrip":false,"normalized":false,"rstrip":false,"single_word":false,"special":true},{"content":"<|reserved_special_092|>","id":109,"lstrip":false,"normalized":false,"rstrip":false,"single_word":false,"special":true},{"content":"<|reserved_special_093|>","id":110,"lstrip":false,"normalized":false,"rstrip":false,"single_word":false,"special":true},{"content":"<|reserved_special_094|>","id":111,"lstrip":false,"normalized":false,"rstrip":false,"single_word":false,"special":true},{"content":"<|reserved_special_095|>","id":112,"lstrip":false,"normalized":false,"rstrip":false,"single_word":false,"special":true},{"content":"<|reserved_special_096|>","id":113,"lstrip":false,"normalized":false,"rstrip":false,"single_word":false,"special":true},{"content":"<|reserved_special_097|>","id":114,"lstrip":false,"normalized":false,"rstrip":false,"single_word":false,"special":true},{"content":"<|reserved_special_098|>","id":115,"lstrip":false,"normalized":false,"rstrip":false,"single_word":false,"special":true},{"content":"<|reserved_special_099|>","id":116,"lstrip":false,"normalized":false,"rstrip":false,"single_word":false,"special":true},{"content":"<|reserved_special_100|>","id":117,"lstrip":false,"normalized":false,"rstrip":false,"single_word":false,"special":true},{"content":"<|reserved_special_101|>","id":118,"lstrip":false,"normalized":false,"rstrip":false,"single_word":false,"special":true},{"content":"<|reserved_special_102|>","id":119,"lstrip":false,"normalized":false,"rstrip":false,"single_word":false,"special":true},{"content":"<|reserved_special_103|>","id":120,"lstrip":false,"normalized":false,"rstrip":false,"single_word":false,"special":true},{"content":"<|reserved_special_104|>","id":121,"lstrip":false,"normalized":false,"rstrip":false,"single_word":false,"special":true},{"content":"<|reserved_special_105|>","id":122,"lstrip":false,"normalized":false,"rstrip":false,"single_word":false,"special":true},{"content":"<|reserved_special_106|>","id":123,"lstrip":false,"normalized":false,"rstrip":false,"single_word":false,"special":true},{"content":"<|reserved_special_107|>","id":124,"lstrip":false,"normalized":false,"rstrip":false,"single_word":false,"special":true},{"content":"<|reserved_special_108|>","id":125,"lstrip":false,"normalized":false,"rstrip":false,"single_word":false,"special":true},{"content":"<|reserved_special_109|>","id":126,"lstrip":false,"normalized":false,"rstrip":false,"single_word":false,"special":true},{"content":"<|reserved_special_110|>","id":127,"lstrip":false,"normalized":false,"rstrip":false,"single_word":false,"special":true},{"content":"<|reserved_special_111|>","id":128,"lstrip":false,"normalized":false,"rstrip":false,"single_word":false,"special":true},{"content":"<|reserved_special_112|>","id":129,"lstrip":false,"normalized":false,"rstrip":false,"single_word":false,"special":true},{"content":"<|reserved_special_113|>","id":130,"lstrip":false,"normalized":false,"rstrip":false,"single_word":false,"special":true},{"content":"<|reserved_special_114|>","id":131,"lstrip":false,"normalized":false,"rstrip":false,"single_word":false,"special":true},{"content":"<|reserved_special_115|>","id":132,"lstrip":false,"normalized":false,"rstrip":false,"single_word":false,"special":true},{"content":"<|reserved_special_116|>","id":133,"lstrip":false,"normalized":false,"rstrip":false,"single_word":false,"special":true},{"content":"<|reserved_special_117|>","id":134,"lstrip":false,"normalized":false,"rstrip":false,"single_word":false,"special":true},{"content":"<|reserved_special_118|>","id":135,"lstrip":false,"normalized":false,"rstrip":false,"single_word":false,"special":true},{"content":"<|reserved_special_119|>","id":136,"lstrip":false,"normalized":false,"rstrip":false,"single_word":false,"special":true},{"content":"<|reserved_special_120|>","id":137,"lstrip":false,"normalized":false,"rstrip":false,"single_word":false,"special":true},{"content":"<|reserved_special_121|>","id":138,"lstrip":false,"normalized":false,"rstrip":false,"single_word":false,"special":true},{"content":"<|reserved_special_122|>","id":139,"lstrip":false,"normalized":false,"rstrip":false,"single_word":false,"special":true},{"content":"<|reserved_special_123|>","id":140,"lstrip":false,"normalized":false,"rstrip":false,"single_word":false,"special":true},{"content":"<|reserved_special_124|>","id":141,"lstrip":false,"normalized":false,"rstrip":false,"single_word":false,"special":true},{"content":"<|reserved_special_125|>","id":142,"lstrip":false,"normalized":false,"rstrip":false,"single_word":false,"special":true},{"content":"<|reserved_special_126|>","id":143,"lstrip":false,"normalized":false,"rstrip":false,"single_word":false,"special":true},{"content":"<|reserved_special_127|>","id":144,"lstrip":false,"normalized":false,"rstrip":false,"single_word":false,"special":true},{"content":"<|reserved_special_128|>","id":145,"lstrip":false,"normalized":false,"rstrip":false,"single_word":false,"special":true},{"content":"<|reserved_special_129|>","id":146,"lstrip":false,"normalized":false,"rstrip":false,"single_word":false,"special":true},{"content":"<|reserved_special_130|>","id":147,"lstrip":false,"normalized":false,"rstrip":false,"single_word":false,"special":true},{"content":"<|reserved_special_131|>","id":148,"lstrip":false,"normalized":false,"rstrip":false,"single_word":false,"special":true},{"content":"<|reserved_special_132|>","id":149,"lstrip":false,"normalized":false,"rstrip":false,"single_word":false,"special":true},{"content":"<|reserved_special_133|>","id":150,"lstrip":false,"normalized":false,"rstrip":false,"single_word":false,"special":true},{"content":"<|reserved_special_134|>","id":151,"lstrip":false,"normalized":false,"rstrip":false,"single_word":false,"special":true},{"content":"<|reserved_special_135|>","id":152,"lstrip":false,"normalized":false,"rstrip":false,"single_word":false,"special":true},{"content":"<|reserved_special_136|>","id":153,"lstrip":false,"normalized":false,"rstrip":false,"single_word":false,"special":true},{"content":"<|reserved_special_137|>","id":154,"lstrip":false,"normalized":false,"rstrip":false,"single_word":false,"special":true},{"content":"<|reserved_special_138|>","id":155,"lstrip":false,"normalized":false,"rstrip":false,"single_word":false,"special":true},{"content":"<|reserved_special_139|>","id":156,"lstrip":false,"normalized":false,"rstrip":false,"single_word":false,"special":true},{"content":"<|reserved_special_140|>","id":157,"lstrip":false,"normalized":false,"rstrip":false,"single_word":false,"special":true},{"content":"<|reserved_special_141|>","id":158,"lstrip":false,"normalized":false,"rstrip":false,"single_word":false,"special":true},{"content":"<|reserved_special_142|>","id":159,"lstrip":false,"normalized":false,"rstrip":false,"single_word":false,"special":true},{"content":"<|reserved_special_143|>","id":160,"lstrip":false,"normalized":false,"rstrip":false,"single_word":false,"special":true},{"content":"<|reserved_special_144|>","id":161,"lstrip":false,"normalized":false,"rstrip":false,"single_word":false,"special":true},{"content":"<|reserved_special_145|>","id":162,"lstrip":false,"normalized":false,"rstrip":false,"single_word":false,"special":true},{"content":"<|reserved_special_146|>","id":163,"lstrip":false,"normalized":false,"rstrip":false,"single_word":false,"special":true},{"content":"<|reserved_special_147|>","id":164,"lstrip":false,"normalized":false,"rstrip":false,"single_word":false,"special":true},{"content":"<|reserved_special_148|>","id":165,"lstrip":false,"normalized":false,"rstrip":false,"single_word":false,"special":true},{"content":"<|reserved_special_149|>","id":166,"lstrip":false,"normalized":false,"rstrip":false,"single_word":false,"special":true},{"content":"<|reserved_special_150|>","id":167,"lstrip":false,"normalized":false,"rstrip":false,"single_word":false,"special":true},{"content":"<|reserved_special_151|>","id":168,"lstrip":false,"normalized":false,"rstrip":false,"single_word":false,"special":true},{"content":"<|reserved_special_152|>","id":169,"lstrip":false,"normalized":false,"rstrip":false,"single_word":false,"special":true},{"content":"<|reserved_special_153|>","id":170,"lstrip":false,"normalized":false,"rstrip":false,"single_word":false,"special":true},{"content":"<|reserved_special_154|>","id":171,"lstrip":false,"normalized":false,"rstrip":false,"single_word":false,"special":true},{"content":"<|reserved_special_155|>","id":172,"lstrip":false,"normalized":false,"rstrip":false,"single_word":false,"special":true},{"content":"<|reserved_special_156|>","id":173,"lstrip":false,"normalized":false,"rstrip":false,"single_word":false,"special":true},{"content":"<|reserved_special_157|>","id":174,"lstrip":false,"normalized":false,"rstrip":false,"single_word":false,"special":true},{"content":"<|reserved_special_158|>","id":175,"lstrip":false,"normalized":false,"rstrip":false,"single_word":false,"special":true},{"content":"<|reserved_special_159|>","id":176,"lstrip":false,"normalized":false,"rstrip":false,"single_word":false,"special":true},{"content":"<|reserved_special_160|>","id":177,"lstrip":false,"normalized":false,"rstrip":false,"single_word":false,"special":true},{"content":"<|reserved_special_161|>","id":178,"lstrip":false,"normalized":false,"rstrip":false,"single_word":false,"special":true},{"content":"<|reserved_special_162|>","id":179,"lstrip":false,"normalized":false,"rstrip":false,"single_word":false,"special":true},{"content":"<|reserved_special_163|>","id":180,"lstrip":false,"normalized":false,"rstrip":false,"single_word":false,"special":true},{"content":"<|reserved_special_164|>","id":181,"lstrip":false,"normalized":false,"rstrip":false,"single_word":false,"special":true},{"content":"<|reserved_special_165|>","id":182,"lstrip":false,"normalized":false,"rstrip":false,"single_word":false,"special":true},{"content":"<|reserved_special_166|>","id":183,"lstrip":false,"normalized":false,"rstrip":false,"single_word":false,"special":true},{"content":"<|reserved_special_167|>","id":184,"lstrip":false,"normalized":false,"rstrip":false,"single_word":false,"special":true},{"content":"<|reserved_special_168|>","id":185,"lstrip":false,"normalized":false,"rstrip":false,"single_word":false,"special":true},{"content":"<|reserved_special_169|>","id":186,"lstrip":false,"normalized":false,"rstrip":false,"single_word":false,"special":true},{"content":"<|reserved_special_170|>","id":187,"lstrip":false,"normalized":false,"rstrip":false,"single_word":false,"special":true},{"content":"<|reserved_special_171|>","id":188,"lstrip":false,"normalized":false,"rstrip":false,"single_word":false,"special":true},{"content":"<|reserved_special_172|>","id":189,"lstrip":false,"normalized":false,"rstrip":false,"single_word":false,"special":true},{"content":"<|reserved_special_173|>","id":190,"lstrip":false,"normalized":false,"rstrip":false,"single_word":false,"special":true},{"content":"<|reserved_special_174|>","id":191,"lstrip":false,"normalized":false,"rstrip":false,"single_word":false,"special":true},{"content":"<|reserved_special_175|>","id":192,"lstrip":false,"normalized":false,"rstrip":false,"single_word":false,"special":true},{"content":"<|reserved_special_176|>","id":193,"lstrip":false,"normalized":false,"rstrip":false,"single_word":false,"special":true},{"content":"<|reserved_special_177|>","id":194,"lstrip":false,"normalized":false,"rstrip":false,"single_word":false,"special":true},{"content":"<|reserved_special_178|>","id":195,"lstrip":false,"normalized":false,"rstrip":false,"single_word":false,"special":true},{"content":"<|reserved_special_179|>","id":196,"lstrip":false,"normalized":false,"rstrip":false,"single_word":false,"special":true},{"content":"<|reserved_special_180|>","id":197,"lstrip":false,"normalized":false,"rstrip":false,"single_word":false,"special":true},{"content":"<|reserved_special_181|>","id":198,"lstrip":false,"normalized":false,"rstrip":false,"single_word":false,"special":true},{"content":"<|reserved_special_182|>","id":199,"lstrip":false,"normalized":false,"rstrip":false,"single_word":false,"special":true},{"content":"<|reserved_special_183|>","id":200,"lstrip":false,"normalized":false,"rstrip":false,"single_word":false,"special":true},{"content":"<|reserved_special_184|>","id":201,"lstrip":false,"normalized":false,"rstrip":false,"single_word":false,"special":true},{"content":"<|reserved_special_185|>","id":202,"lstrip":false,"normalized":false,"rstrip":false,"single_word":false,"special":true},{"content":"<|reserved_special_186|>","id":203,"lstrip":false,"normalized":false,"rstrip":false,"single_word":false,"special":true},{"content":"<|reserved_special_187|>","id":204,"lstrip":false,"normalized":false,"rstrip":false,"single_word":false,"special":true},{"content":"<|reserved_special_188|>","id":205,"lstrip":false,"normalized":false,"rstrip":false,"single_word":false,"special":true},{"content":"<|reserved_special_189|>","id":206,"lstrip":false,"normalized":false,"rstrip":false,"single_word":false,"special":true},{"content":"<|reserved_special_190|>","id":207,"lstrip":false,"normalized":false,"rstrip":false,"single_word":false,"special":true},{"content":"<|reserved_special_191|>","id":208,"lstrip":false,"normalized":false,"rstrip":false,"single_word":false,"special":true},{"content":"<|reserved_special_192|>","id":209,"lstrip":false,"normalized":false,"rstrip":false,"single_word":false,"special":true},{"content":"<|reserved_special_193|>","id":210,"lstrip":false,"normalized":false,"rstrip":false,"single_word":false,"special":true},{"content":"<|reserved_special_194|>","id":211,"lstrip":false,"normalized":false,"rstrip":false,"single_word":false,"special":true},{"content":"<|reserved_special_195|>","id":212,"lstrip":false,"normalized":false,"rstrip":false,"single_word":false,"special":true},{"content":"<|reserved_special_196|>","id":213,"lstrip":false,"normalized":false,"rstrip":false,"single_word":false,"special":true},{"content":"<|reserved_special_197|>","id":214,"lstrip":false,"normalized":false,"rstrip":false,"single_word":false,"special":true},{"content":"<|reserved_special_198|>","id":215,"lstrip":false,"normalized":false,"rstrip":false,"single_word":false,"special":true},{"content":"<|reserved_special_199|>","id":216,"lstrip":false,"normalized":false,"rstrip":false,"single_word":false,"special":true},{"content":"<|reserved_special_200|>","id":217,"lstrip":false,"normalized":false,"rstrip":false,"single_word":false,"special":true},{"content":"<|reserved_special_201|>","id":218,"lstrip":false,"normalized":false,"rstrip":false,"single_word":false,"special":true},{"content":"<|reserved_special_202|>","id":219,"lstrip":false,"normalized":false,"rstrip":false,"single_word":false,"special":true},{"content":"<|reserved_special_203|>","id":220,"lstrip":false,"normalized":false,"rstrip":false,"single_word":false,"special":true},{"content":"<|reserved_special_204|>","id":221,"lstrip":false,"normalized":false,"rstrip":false,"single_word":false,"special":true},{"content":"<|reserved_special_205|>","id":222,"lstrip":false,"normalized":false,"rstrip":false,"single_word":false,"special":true},{"content":"<|reserved_special_206|>","id":223,"lstrip":false,"normalized":false,"rstrip":false,"single_word":false,"special":true},{"content":"<|reserved_special_207|>","id":224,"lstrip":false,"normalized":false,"rstrip":false,"single_word":false,"special":true},{"content":"<|reserved_special_208|>","id":225,"lstrip":false,"normalized":false,"rstrip":false,"single_word":false,"special":true},{"content":"<|reserved_special_209|>","id":226,"lstrip":false,"normalized":false,"rstrip":false,"single_word":false,"special":true},{"content":"<|reserved_special_210|>","id":227,"lstrip":false,"normalized":false,"rstrip":false,"single_word":false,"special":true},{"content":"<|reserved_special_211|>","id":228,"lstrip":false,"normalized":false,"rstrip":false,"single_word":false,"special":true},{"content":"<|reserved_special_212|>","id":229,"lstrip":false,"normalized":false,"rstrip":false,"single_word":false,"special":true},{"content":"<|reserved_special_213|>","id":230,"lstrip":false,"normalized":false,"rstrip":false,"single_word":false,"special":true},{"content":"<|reserved_special_214|>","id":231,"lstrip":false,"normalized":false,"rstrip":false,"single_word":false,"special":true},{"content":"<|reserved_special_215|>","id":232,"lstrip":false,"normalized":false,"rstrip":false,"single_word":false,"special":true},{"content":"<|reserved_special_216|>","id":233,"lstrip":false,"normalized":false,"rstrip":false,"single_word":false,"special":true},{"content":"<|reserved_special_217|>","id":234,"lstrip":false,"normalized":false,"rstrip":false,"single_word":false,"special":true},{"content":"<|reserved_special_218|>","id":235,"lstrip":false,"normalized":false,"rstrip":false,"single_word":false,"special":true},{"content":"<|reserved_special_219|>","id":236,"lstrip":false,"normalized":false,"rstrip":false,"single_word":false,"special":true},{"content":"<|reserved_special_220|>","id":237,"lstrip":false,"normalized":false,"rstrip":false,"single_word":false,"special":true},{"content":"<|reserved_special_221|>","id":238,"lstrip":false,"normalized":false,"rstrip":false,"single_word":false,"special":true},{"content":"<|reserved_special_222|>","id":239,"lstrip":false,"normalized":false,"rstrip":false,"single_word":false,"special":true},{"content":"<|reserved_special_223|>","id":240,"lstrip":false,"normalized":false,"rstrip":false,"single_word":false,"special":true},{"content":"<|reserved_special_224|>","id":241,"lstrip":false,"normalized":false,"rstrip":false,"single_word":false,"special":true},{"content":"<|reserved_special_225|>","id":242,"lstrip":false,"normalized":false,"rstrip":false,"single_word":false,"special":true},{"content":"<|reserved_special_226|>","id":243,"lstrip":false,"normalized":false,"rstrip":false,"single_word":false,"special":true},{"content":"<|reserved_special_227|>","id":244,"lstrip":false,"normalized":false,"rstrip":false,"single_word":false,"special":true},{"content":"<|reserved_special_228|>","id":245,"lstrip":false,"normalized":false,"rstrip":false,"single_word":false,"special":true},{"content":"<|reserved_special_229|>","id":246,"lstrip":false,"normalized":false,"rstrip":false,"single_word":false,"special":true},{"content":"<|reserved_special_230|>","id":247,"lstrip":false,"normalized":false,"rstrip":false,"single_word":false,"special":true},{"content":"<|reserved_special_231|>","id":248,"lstrip":false,"normalized":false,"rstrip":false,"single_word":false,"special":true},{"content":"<|reserved_special_232|>","id":249,"lstrip":false,"normalized":false,"rstrip":false,"single_word":false,"special":true},{"content":"<|reserved_special_233|>","id":250,"lstrip":false,"normalized":false,"rstrip":false,"single_word":false,"special":true},{"content":"<|reserved_special_234|>","id":251,"lstrip":false,"normalized":false,"rstrip":false,"single_word":false,"special":true},{"content":"<|reserved_special_235|>","id":252,"lstrip":false,"normalized":false,"rstrip":false,"single_word":false,"special":true},{"content":"<|reserved_special_236|>","id":253,"lstrip":false,"normalized":false,"rstrip":false,"single_word":false,"special":true},{"content":"<|reserved_special_237|>","id":254,"lstrip":false,"normalized":false,"rstrip":false,"single_word":false,"special":true},{"content":"<|reserved_special_238|>","id":255,"lstrip":false,"normalized":false,"rstrip":false,"single_word":false,"special":true}],"decoder":{"add_prefix_space":true,"trim_offsets":true,"type":"ByteLevel","use_regex":true},"model":{"byte_fallback":false,"continuing_subword_prefix":null,"dropout":null,"end_of_word_suffix":null,"fuse_unk":false,"ignore_merges":false,"merges":[["Ġ","t"],["Ġ","a"],["i","n"],["h","e"],["r","e"],["o","n"],["e","r"],["Ġt","he"],["a","t"],["Ġ","s"],["Ġ","o"],["e","n"],["Ġ","c"],["e","s"],["i","t"],["o","r"],["Ġ","w"],["i","s"],["n","d"],["in","g"],["Ġ","p"],["Ġ","f"],["a","l"],["Ġ","Ġ"],["o","u"],["Ġ","b"],["a","n"],["e","d"],["Ġo","f"],["a","r"],["i","on"],["Ġ","m"],["Ġ","in"],["Ġt","o"],["l","e"],["Ġa","nd"],["i","c"],["Ġ","d"],["Ċ","Ċ"],["o","m"],["a","s"],["en","t"],["c","t"],["Ġt","h"],["Ġ","h"],["Ġ","e"],["r","o"],["s","t"],["i","l"],["Ġ","n"],["Ġ","re"],["e","t"],["Ġ","l"],["v","e"],["Ġ","is"],["l","y"],["u","t"],["i","m"],["Ġ","T"],["Ġ","g"],["at","ion"],["Ġ","y"],["s","e"],["r","a"],["c","e"],["o","t"],["o","l"],["o","w"],["i","g"],["Ġ","u"],["i","d"],["Ġb","e"],["Ġf","or"],["Ġ","S"],["ĠĠ","ĠĠ"],["â","Ģ"],["Ġ","I"],["c","h"],["u","r"],["Ġ","A"],["Ġy","ou"],["a","m"],["it","h"],[".","Ċ"],["v","er"],["Ġ","C"],["Ġ","on"],["Ġs","t"],["u","l"],["Ġth","at"],["a","y"],["e","l"],["i","r"],[".","ĊĊ"],["i","f"],["a","d"],["Ġw","ith"],["Ġc","on"],["o","d"],["Ġp","ro"],["-","-"],["Ġ","it"],["a","g"],["t","er"],["Ġa","n"],["Ġa","s"],["Ġ","("],["at","e"],["Ġa","l"],["Ġ","M"],["Ġ","P"],["he","r"],["h","t"],["a","b"],["q","u"],["u","m"],["Ġo","r"],["Ġw","h"],["Ġe","x"],["er","s"],["Ġa","re"],["es","s"],["p","p"],["r","i"],["e","m"],["Ġc","om"],["es","t"],["e","ct"],["is","t"],["re","s"],["Ġ","v"],["Ġ","B"],["il","l"],["a","c"],["t","h"],["k","e"],["Ġw","e"],["ĠT","he"],["u","n"],["u","s"],["a","nd"],["l","o"],["m","ent"],["Ġd","e"],["Ġ","W"],["it","y"],["Ġ","he"],["r","om"],["Ġ","D"],["o","re"],["Ġs","u"],["i","ve"],["#","#"],["Ġ","F"],["Ġ","H"],["a","in"],["n","t"],["i","es"],["Ġc","an"],["Ġ","R"],["l","d"],["o","s"],["Ġb","y"],["Ġn","e"],["Ġa","t"],["p","t"],["an","t"],["or","t"],["Ġs","e"],["Ġ","E"],["Ġ","r"],["i","v"],["Ġh","a"],["Ġ","L"],["o","c"],["ar","t"],["u","re"],["p","le"],["Ġth","is"],["Ġc","h"],["ĠĠ","Ġ"],["al","l"],["ig","ht"],["Ġf","rom"],["ion","s"],["p","e"],["p","s"],["i","al"],["Ġyou","r"],["âĢ","Ļ"],["Ġn","ot"],["en","d"],["Ġ","N"],["`","`"],["u","st"],["Ġ","G"],["Ġs","h"],["Ġu","s"],["p","er"],["Ġ","O"],["in","e"],["g","e"],["Ġ","le"],["p","l"],["Ġha","ve"],["u","d"],["e","re"],["Ġ","âĢ"],["c","om"],["ag","e"],["ou","t"],["'","s"],["ou","r"],["Ġ","\""],["T","he"],["2","0"],["Ġw","as"],["ic","al"],["ou","ld"],["ic","h"],["r","ou"],["i","z"],["ar","d"],["Ġin","t"],["Ġ","-"],["Ġ","en"],["a","ct"],["o","g"],["o","st"],["Ġw","or"],["ĠĠĠĠ","ĠĠĠĠ"],["Ġal","l"],["Ġw","ill"],["u","b"],["a","re"],["Ġa","b"],["ab","le"],["Ġa","d"],["Ġw","he"],["Ġp","l"],["--","--"],["Ġ","im"],["i","b"],["ul","t"],["id","e"],["or","m"],["Ġ","$"],["t","her"],["i","re"],["f","f"],["ation","s"],["o","o"],["e","w"],["at","ed"],["in","d"],[".","."],["Ġcon","t"],["a","k"],["ct","ion"],["Ġ","="],["as","t"],["a","ch"],["ac","k"],["u","e"],["am","e"],["Ġwh","ich"],["ou","s"],["Ġ","k"],["an","s"],["Ġ","U"],["om","e"],["/","/"],["an","ce"],["el","l"],["d","u"],["as","s"],["c","l"],["Ġ","["],["Ġd","o"],["Ġ","J"],["Ġm","e"],["Ġre","s"],["0","0"],["c","c"],["Ġthe","ir"],["Ġa","pp"],["i","le"],["on","g"],["ĠT","h"],["e","x"],["ic","e"],["Ġ","`"],["Ġb","ut"],["ar","y"],["ĠI","n"],["g","h"],["r","y"],["Ġs","o"],["ig","n"],["Ġ","j"],["k","s"],["as","e"],["e","ar"],["in","t"],["Ġh","as"],["e","p"],["*","*"],["im","e"],["Ġcom","p"],["a","p"],["en","ce"],["âĢĻ","s"],["b","er"],["Ġ","\\"],[":","//"],["u","al"],["a","ke"],["a","v"],["Ġu","n"],["f","orm"],["Ġp","er"],["s","o"],["Ġon","e"],["Ġthe","y"],["l","ow"],["ent","s"],["it","e"],["Ġm","ore"],["an","g"],["Ġo","ut"],["Ġu","p"],["a","ce"],["Ġc","l"],["on","e"],["o","p"],["r","u"],["res","s"],["a","il"],["]","("],["it","ion"],["i","p"],["Ġm","an"],["ver","y"],["i","ke"],["Ġ","qu"],["Ġd","is"],["c","on"],["l","l"],["Ġg","o"],[",","Ċ"],["Ġs","p"],["Ġ","|"],["Ġa","r"],["ĠS","t"],["Ġo","ther"],["re","at"],["c","k"],["or","y"],["en","s"],["``","`"],["i","a"],[")","Ċ"],["Ġp","re"],["ou","nt"],["or","d"],["c","es"],["p","h"],["j","ect"],["or","s"],["Ġ","if"],["ht","t"],["-","Ċ"],["Ġs","c"],["il","d"],["Ġo","ur"],["at","h"],["Ġp","art"],["f","ere"],["er","v"],["Ġ","V"],["p","ort"],["Ġt","r"],["Ġe","v"],["Ġab","out"],["re","e"],["i","e"],["Ġcom","m"],["Ġan","y"],["ow","n"],["ing","s"],["Ġ","Y"],["nd","er"],["Ġh","is"],["1","0"],["oo","k"],["Ġwhe","n"],["Ġu","se"],["a","u"],["1","9"],[":","ĊĊ"],["Ġal","so"],["ou","nd"],["o","se"],["l","ic"],["Â","ł"],["Ġl","ike"],["Ġthe","m"],["ir","st"],["Ġt","ime"],["ver","s"],["Ġint","o"],["t","he"],["o","ve"],["f","t"],["pe","c"],["Ġs","ome"],["Ġ","ro"],["Ġthe","re"],["at","a"],["od","e"],[".","com"],["ay","s"],["Ġwor","k"],["Ġm","ay"],["Ġit","s"],["Ġ","K"],["Ġne","ed"],["ĠC","h"],["htt","ps"],["Ġh","ow"],["ĠI","t"],["Ġne","w"],["Ġs","y"],["w","e"],["Ġt","ra"],["Ġt","e"],["r","ic"],["at","es"],["ar","i"],["Ġk","n"],["Ġb","et"],["Ġad","d"],["Ġwh","o"],["ĠTh","is"],["at","er"],["le","ct"],["Ġthe","se"],["Ġex","p"],["re","d"],["m","s"],["Ġin","d"],["if","ic"],["al","ly"],["n","ing"],["Ġd","es"],["Ġin","st"],["w","o"],["Ġn","um"],["c","ess"],["Ġd","if"],["Ġc","ol"],["t","e"],["Ġth","an"],["Ġp","o"],["is","h"],["ter","n"],["ment","s"],["Ġo","ver"],["=","="],[":","Ċ"],["Ġe","m"],["en","er"],["âĢ","Ŀ"],["Ġ","'"],["Ġw","ould"],[")",","],["Ġa","cc"],["ro","w"],["b","le"],["et","h"],["Ġ","."],["at","ing"],["l","es"],["Ġwe","re"],["Ġm","od"],["Ġu","nder"],["Ġa","g"],["ar","k"],["e","g"],["Ġm","y"],["Ġv","al"],["Ġf","e"],["in","k"],["rou","gh"],["cl","ud"],["Ġf","irst"],["Ġcon","s"],["I","n"],["y","s"],["Ġpro","v"],["ri","b"],["Ġbe","en"],["f","ul"],["i","ent"],["at","ive"],["----","----"],["o","v"],["Ġp","os"],["on","s"],["c","re"],["Ġn","o"],["Ġs","et"],["Ġof","f"],["ol","d"],["ib","le"],["it","ies"],["ĠâĢ","Ķ"],["am","ple"],["n","g"],["Ġp","e"],["Ġwh","at"],["Ġsu","ch"],["Ġon","ly"],["Ġ","ra"],["u","res"],["Ġg","et"],["Ġs","a"],["r","it"],["Ġe","ach"],["is","e"],["20","1"],["il","ity"],["st","em"],["ex","t"],["Ġa","m"],["ur","n"],["Ġf","un"],["ra","m"],["Ġt","wo"],["ig","h"],["ic","s"],["##","#"],["Ġb","u"],["e","f"],["b","s"],["p","ro"],["ic","k"],[")","ĊĊ"],["T","h"],["Ġhe","l"],["n","e"],["Ġre","l"],["Ġthe","n"],["Ġy","ear"],["ra","ct"],["he","d"],["ul","ar"],["Ġs","pec"],["Ġfor","m"],["Ġa","ct"],[")","."],["ol","low"],["t","ain"],["ol","og"],["Ġh","ad"],["i","an"],["Ġwhe","re"],["Ġth","rough"],["ve","lo"],["1","8"],["Ġre","g"],["g","et"],["Ġdif","fere"],["Ġc","o"],["ut","ion"],["p","ut"],["t","ing"],["ĠâĢ","ľ"],["it","s"],["Ġ","{"],["f","ter"],["s","s"],["on","d"],["ag","es"],["au","se"],["ot","h"],["Ġin","clud"],["c","ed"],["is","s"],["1","2"],["an","ge"],["Ġa","c"],["'","t"],["Ġre","qu"],["on","t"],["Ġre","c"],["e","c"],["al","s"],["Ġus","ing"],["Ġst","ud"],["Ġas","s"],["Ġs","im"],["E","R"],["ĠW","e"],["i","ew"],["Ġpro","du"],["Ġp","r"],["Ġsh","ould"],["o","ple"],["Ġsu","pp"],["Ġre","m"],["Ġ","+"],["Ġin","ter"],["he","n"],["Ġus","ed"],["i","x"],["ur","ing"],["Ġd","ata"],["Ġf","ollow"],["se","l"],["u","es"],["rou","nd"],["er","m"],["pt","ion"],["Ġde","f"],["_","_"],["o","od"],["i","ed"],["i","ous"],["Ġe","ff"],["$","$"],["c","y"],["Ġm","ake"],["we","en"],["Ġj","ust"],["Ġv","ari"],["w","n"],["Ġse","e"],["as","ed"],["t","o"],["Ġe","very"],["iz","e"],["Ġin","v"],["Ġp","h"],["t","y"],["Ġm","ost"],["f","ore"],["or","k"],["a","x"],["Ġ","ke"],["Ġtr","ans"],["Ġkn","ow"],["ic","es"],["Ġsu","b"],["he","s"],["i","o"],["Ġex","per"],["ow","er"],["O","N"],["Ġst","r"],["Ġhel","p"],["velo","p"],["Ġ","her"],["ve","l"],["Ġ","<"],["Ġbet","ween"],["Ġe","qu"],["ou","gh"],[";","Ċ"],["ĠĠĠĠ","ĠĠĠ"],["Ġsy","stem"],["Ġpe","ople"],["Ġnum","ber"],["Ġg","ener"],["i","ence"],["Ġt","y"],["Ġc","re"],["ad","e"],["Ġman","y"],["Ġ","*"],["Ġo","b"],["Ġ","x"],["ĠP","ro"],["Ġat","t"],["Ġc","all"],["form","ation"],["ith","ub"],["ĠâĢ","ĵ"],["res","ent"],["u","p"],["m","er"],["Ġs","ol"],["Ġ","ent"],["if","e"],["o","f"],["in","es"],["s","h"],["Ġs","m"],["ak","ing"],["Ġm","at"],["t","en"],["Ġf","ind"],["n","ce"],["Ġdiffere","nt"],["ru","ct"],["Ġc","ould"],["1","1"],["ĠR","e"],["ĠU","n"],["ation","al"],["Ġw","ell"],["Ġd","et"],["âĢ","¢"],["i","el"],["o","b"],["Ġs","erv"],["Ġw","ay"],["Ġre","p"],["ĠI","f"],["ar","ch"],["ic","t"],["Ġ","ed"],["g","ithub"],["Ġd","ist"],["a","w"],["h","at"],["ĠĠĠĠĠĠĠĠ","ĠĠĠĠĠĠĠĠ"],["at","ure"],["Ġg","ra"],["Ġ","&"],["Ġp","ers"],["ĠC","om"],["ire","ct"],["al","th"],["Ġl","oc"],["il","y"],["E","S"],["1","5"],["u","ch"],["t","s"],["o","ol"],["ot","her"],["p","ect"],["Ġst","art"],["Ġpo","int"],["ĠH","e"],["Ġbe","c"],["w","ard"],["d","s"],["Ġc","ur"],["id","ent"],["Ġr","un"],["Ġa","ut"],["ul","l"],["ere","d"],["ĠF","or"],["Ġin","s"],["Ġde","p"],["Ġev","en"],["e","ver"],["Ġfun","ction"],["{","\\"],["20","0"],["u","g"],["Ġs","ame"],["Ġpro","cess"],["ch","n"],["Ġt","est"],["Ġch","ar"],["Ġw","ant"],["im","es"],["Ġpro","ble"],["I","N"],[">","Ċ"],["en","g"],["Ġb","ack"],["iv","es"],["d","er"],["Ġde","velop"],["Ġr","ight"],["Ġh","igh"],["ra","c"],["-","s"],["Ġs","ign"],["Ġm","ust"],["Ġs","ur"],["ut","e"],["Ġres","ult"],["Ġex","ample"],["Ġex","t"],["d","e"],["as","h"],["Ġcon","f"],["st","and"],["Ġc","or"],["l","ed"],["Ġa","fter"],["-","b"],["ical","ly"],["ĠY","ou"],["Ġcom","ple"],["l","ine"],["Th","is"],["ar","n"],["c","o"],["ect","ion"],["Ġdo","es"],["Ġm","in"],["1","6"],["Ġre","ad"],["ent","ial"],["```","ĊĊ"],["i","qu"],["w","w"],["Ġ","end"],["Ġc","he"],["Ġpro","g"],["in","s"],["Ġcl","ass"],["Ġth","ose"],["it","ed"],["H","E"],["iz","ed"],["eth","od"],["Ġs","he"],["in","ce"],["re","n"],["Ġl","ong"],["er","g"],["ĠE","x"],["Ġpos","s"],["ce","pt"],["Ġim","port"],["n","ess"],["in","ed"],["Ġl","ook"],["Ġprov","id"],["t","t"],["v","ing"],["Ġin","formation"],["c","ri"],["et","s"],["Ġ","very"],["Ġre","t"],["Ġa","v"],["Ġo","wn"],["g","an"],["a","ve"],["re","ad"],["Ġin","f"],["al","ity"],["Ġg","reat"],["ow","s"],["r","ing"],["Ġn","ow"],["Ġde","c"],["it","t"],["ual","ly"],["p","en"],["re","nt"],["1","3"],["v","ent"],["Ġ","i"],["and","s"],["Ġwor","ld"],["}","}"],["1","4"],["an","y"],["Ġs","er"],["Ġf","l"],["ur","al"],["Ġapp","ro"],["a","ir"],["in","al"],["ĠĠĠĠ","Ġ"],["er","n"],["Ġwh","ile"],["ĠA","n"],["Ġ","**"],["Ġc","ount"],["Ġbe","fore"],["Ġyear","s"],["u","nd"],["ĠA","l"],["ĠS","o"],["Ġd","i"],["-","d"],["Ġbec","ause"],["i","er"],["sel","f"],["ist","s"],["Ġb","oth"],["Ġpl","ay"],["Ġd","own"],["Ġp","ar"],["if","y"],["Ġsupp","ort"],["iv","en"],["âĢ","Ķ"],["ub","lic"],["=","\""],["1","7"],["?","Ċ"],["Ġhe","re"],["at","or"],["b","e"],["Ġar","t"],["..","."],["g","ht"],["Ġs","om"],["ĠA","d"],["a","pp"],["_","{"],["in","ess"],["oc","i"],["S","t"],["âĢĻ","t"],["at","her"],["Ġf","act"],["v","en"],["Ġ",":"],["oc","k"],["ĠH","ow"],["Ġ$","$"],["Ġbu","ild"],["Ġf","ound"],["Ġm","ade"],["Ġpro","ject"],["Ġgo","od"],["ire","d"],["c","i"],["Ġ","/"],["Ġcon","st"],["Ġsa","id"],["O","R"],["as","es"],["Ġc","ode"],["p","os"],["id","er"],["Ġg","u"],["Ġdes","ign"],["Ġbe","ing"],["Ġh","im"],["A","T"],["Ġm","uch"],["==","=="],["Ġl","ar"],["Ġre","f"],["Ġpers","on"],["Ġte","chn"],["Ġval","ue"],["b","ers"],["Ġb","o"],["Ġf","il"],["Ġcomm","un"],["d","ition"],["olog","y"],["com","e"],["Ġmod","el"],["Ġfollow","ing"],["l","ess"],["A","N"],["r","ight"],["f","rac"],["Ġc","ar"],["Ġt","ake"],["a","it"],["Ġle","t"],["Ġpart","ic"],["Ġd","irect"],["Ġl","ine"],["Ġm","ain"],["Ġe","le"],["<","/"],["2","5"],["is","m"],["Ġst","ate"],["v","ed"],["Ġm","ethod"],["p","r"],["Ġl","ist"],["ot","e"],["en","se"],["v","es"],["iv","id"],["Ġl","ife"],[".","\""],["Ġv","is"],["Ġth","ink"],["Ġf","ile"],["iz","ation"],["ak","es"],["ust","om"],["Ġm","ed"],["}","{"],["an","c"],["ch","ool"],["our","ce"],["E","N"],["Ġag","ain"],["ir","on"],["Ġm","em"],["-","f"],["Ġch","ild"],["Ġp","ol"],["Ġm","ight"],["ar","m"],["or","g"],["Ġc","ent"],["A","R"],["em","ent"],["Ġqu","est"],["e","e"],["it","ions"],["o","k"],["Ġm","on"],["ant","s"],["ĠC","on"],["ter","s"],["et","y"],["ab","ility"],["al","e"],["Ġp","ass"],["pl","es"],["ĠB","ut"],["?","ĊĊ"],["Ġle","ad"],["ĠA","s"],["u","c"],["00","0"],["Ġhe","alth"],["Ġp","at"],["Ġs","k"],["Ġeff","ect"],["Ġf","am"],["an","k"],["Ġin","cre"],["Ġe","ar"],["a","ps"],["3","0"],["Ġg","rou"],["Ġn","ame"],["n","er"],["Ġd","uring"],["Ġd","ay"],["W","e"],["Ġe","as"],["Ġcont","ain"],["um","ent"],["Ġm","ult"],["Ġb","lo"],["Ġprodu","ct"],["Ġb","us"],["od","y"],["he","re"],["Ġwith","in"],["en","cy"],["Ġh","and"],["Ġd","on"],["p","ar"],["ra","y"],["Ġ","Q"],["er","t"],["Ġunder","stand"],["con","d"],["ĠA","nd"],["le","ase"],["in","ing"],["Ġpro","per"],["Ġ","}"],["g","g"],["c","ent"],[".",","],["Ġsm","all"],["Ġor","der"],["ro","ss"],["e","ad"],["Ġwith","out"],["Ġdis","c"],["Ġad","v"],["Ġo","per"],["n","ect"],["Ġ","â"],["20","2"],["b","r"],["iel","d"],["Ġb","l"],["Ġd","el"],["c","ul"],["o","y"],["m","ath"],["Ġres","p"],["Ġproble","m"],["Ġc","are"],["v","iew"],["p","y"],["Ġc","le"],["m","e"],["ĠA","r"],["Ġ",";"],["Ġb","est"],["t","on"],["Ġw","ater"],["ra","ph"],["ere","st"],["Ġre","al"],["x","t"],["v","iron"],["are","d"],["Ġsh","ow"],["w","are"],["Ġcre","ate"],["Ġp","ower"],["Ġm","ark"],["Ġo","pt"],["it","al"],["ate","g"],["Ġinst","all"],["o","int"],["m","an"],["Ġd","id"],["Ġ","--"],["v","al"],["er","ing"],["Ġp","ur"],["f","or"],["Ġc","ase"],["Ġapp","lic"],["us","s"],["mer","ic"],["i","vers"],["ĠThe","y"],["Ġpro","f"],["is","hed"],["Ġposs","ible"],["Ġg","iven"],["ion","al"],["Ġ","X"],["Ġf","in"],["^","{"],["w","ay"],["Ġth","ree"],[",","\""],["as","ter"],["r","on"],["a","z"],["Ġh","ist"],["d","ay"],["j","s"],["am","es"],["Ġto","p"],["lo","y"],["ot","s"],["Ġc","lo"],["ĠS","h"],["Ġcont","in"],["Ġ","est"],["Ġw","rit"],["I","T"],["s","w"],["ĠN","ew"],["I","f"],["Ġc","a"],[".","org"],["Ġg","row"],["Ġa","round"],["Ġch","ang"],["Ġpl","an"],["com","m"],["er","tain"],["Ġh","um"],["Ġret","urn"],["1","00"],["ail","able"],["i","k"],["cc","ess"],["-","c"],["Ġob","ject"],["Ġcall","ed"],["w","ays"],["er","y"],["ĠD","e"],["l","ing"],["5","0"],["it","ive"],["Ġimport","ant"],["a","ut"],["ĠW","h"],["r","al"],["n","ot"],["o","ver"],["ar","s"],["Ġre","se"],["Ġcur","rent"],["im","ate"],["Ġis","s"],["Ġim","p"],["Ġ$","\\"],["ĠT","o"],["ib","r"],["Ġ","ide"],["Ġp","ract"],["a","ult"],["-","m"],["al","k"],["Ġchar","act"],["w","ork"],["h","or"],[",","ĊĊ"],["Ġo","pen"],["##","##"],["Ġbus","iness"],["T","o"],["ang","u"],["Ġacc","ess"],["Ġl","ess"],["--------","--------"],["I","t"],["Ġen","g"],["l","and"],["Ġc","our"],["(",")"],["Ġle","vel"],["Ġper","form"],["Ġc","al"],["Ġh","tt"],["y","le"],["S","T"],["b","o"],["Ġst","ill"],["as","on"],["ĠA","meric"],["A","L"],["2","4"],["Ġst","and"],["Ġcont","ro"],["Ġ","vers"],["Ġ","#"],["if","ied"],["}","$"],["Ġty","p"],["Ġpl","ace"],["Ġex","pl"],["ĠC","l"],["Ġint","eg"],["ou","se"],["Ġc","ustom"],["viron","ment"],["lo","ad"],["Ġint","erest"],["Ġan","other"],["er","r"],["-","t"],["Ġch","ange"],["Ġty","pe"],["m","at"],["Ġt","ri"],["is","ion"],["-","p"],["Ġl","ast"],[")",".ĊĊ"],["Ġbe","l"],["ĠS","e"],["ivid","ual"],["Ġpro","t"],["Ġm","et"],["el","s"],["y","n"],["Ġen","s"],["I","I"],["m","b"],["or","ies"],["Ġp","ost"],["ou","n"],["Ġprog","ram"],["Ġ","z"],["ri","end"],["eth","ing"],["```","Ċ"],["Ġbet","ter"],["Ġor","gan"],["Ġav","ailable"],["Ġs","l"],["2","2"],["Ġre","st"],["at","ch"],["R","E"],["/","m"],["Ġ|","Ċ"],["Ġp","ri"],["Ġof","ten"],["Ġinclud","ing"],["Ġp","resent"],["erg","y"],["Ġc","reat"],["ĠThe","re"],["ver","t"],["Ġh","ome"],["a","h"],["pl","ay"],["ĠThe","se"],["our","ces"],["i","ps"],["iqu","e"],["r","ation"],["rib","ut"],["Ġp","rom"],["cri","pt"],["Ġn","on"],["en","ces"],["Ġt","em"],["Ġall","ow"],["Ġ","ve"],["Ġf","ew"],["Ġs","ince"],["Ġan","al"],["Ġprov","ide"],["ou","ght"],["Ġe","lect"],["Ġp","ublic"],["iv","ing"],["I","C"],["Ġde","v"],["ĠI","nd"],["Ġto","o"],["Ġf","ree"],["l","ish"],["Ġke","y"],["Ġl","ight"],["itt","le"],["an","ces"],["in","ation"],["Ġp","op"],["am","p"],["Ġb","ased"],["Ġst","re"],["A","D"],["Ġd","em"],["ater","ial"],["Ġind","ividual"],["p","or"],["Ġse","cond"],["ĠP","l"],["ab","les"],["Ġre","du"],["Ġs","pe"],["F","or"],["..",".."],["Ġcons","ider"],["Ġle","arn"],["ĠO","F"],["Ġmult","i"],["/","d"],["Ġe","t"],["Ġlar","ge"],["at","ures"],["\"","Ċ"],["Ġo","cc"],["Ġin","c"],["Ġs","ay"],["Ġ","ident"],["Ġsom","ething"],["Ġme","an"],["Ġp","ot"],["Ġth","ings"],["Ġa","ff"],["th","on"],["Ġl","og"],["ac","es"],["u","le"],["Ġe","l"],["Ġim","pro"],["em","s"],["Ġ{","Ċ"],["/","s"],["h","ip"],["ir","c"],["Ġbe","h"],["lo","b"],["il","ar"],["Ġcon","nect"],["p","re"],["Ġs","ing"],["Ġne","xt"],["Ġs","um"],["Ġs","chool"],[".","g"],["2","3"],["Ġt","ry"],["r","ist"],["m","l"],["Ġexper","ience"],["ial","ly"],["or","n"],["Ġto","ol"],["Ġstud","y"],["pp","ort"],["am","et"],["ĠB","y"],["Ġor","ig"],["ĠT","HE"],["Ġme","as"],["w","h"],["ct","ions"],["iv","ity"],["Ġre","ce"],["I","L"],["ent","ly"],["A","l"],["Ġme","ans"],["iss","ion"],["Ġv","iew"],["ĠS","c"],["Ġche","ck"],["g","in"],["ĠW","hat"],[".","p"],["Ġb","r"],[".","m"],["Ġal","ways"],["m","a"],["Ġc","ost"],["oc","ument"],["ra","w"],["f","ace"],["Ġp","res"],["Ġ","Z"],["at","ic"],["o","id"],["i","um"],["Ġadd","ition"],["Ġha","pp"],["Ġp","ack"],["Ġl","im"],["eng","th"],["Ġem","p"],["Ġloc","al"],["oc","ial"],[".","âĢĿ"],["Ġsu","re"],["Ġb","as"],["i","ents"],["Ġt","er"],["oo","ks"],["\"",":"],["le","t"],["Ġke","ep"],["en","c"],["Ġman","ag"],["Ġre","port"],["Ġgrou","p"],["l","u"],["A","s"],["c","ur"],["i","or"],["at","t"],["ail","s"],["Ġb","ra"],["Ġan","sw"],["it","her"],["ro","du"],["at","s"],["b","y"],["g","es"],["Ġfe","el"],["em","ber"],["re","qu"],["th","ing"],["Ġcomm","on"],["Ġab","ove"],["c","rib"],["ĠP","h"],["Ġm","aking"],["Ġst","e"],["re","en"],["ress","ion"],["Y","ou"],["Ġen","vironment"],["ent","ion"],["im","al"],["ar","ning"],["Ġc","ap"],["ĠS","p"],["Ġrep","resent"],["Ġg","r"],["Ġen","c"],["Ġo","ld"],["g","er"],["Ġl","angu"],["ĠIn","st"],["m","ed"],["Ġup","on"],["Ġinclud","e"],["an","n"],["__","__"],["ic","ation"],["m","in"],["C","h"],["s","er"],["Ġus","er"],["Ġt","ext"],["Ġs","it"],["f","e"],["Ġl","ittle"],["Ġserv","ice"],["ard","s"],["}","\\"],["Ġsp","ace"],["4","0"],["Ġb","en"],["fere","nce"],["o","h"],["Ġdep","end"],["Ġt","reat"],["i","od"],["ri","es"],["A","n"],["ĠR","es"],["I","ON"],["Ġacc","ount"],["Ġvari","ous"],["e","k"],["ff","ic"],["Ġst","ruct"],["or","ing"],["Ġcom","e"],["Ġspec","ific"],["Ġb","re"],["n","et"],["ĠI","s"],["Ġm","ove"],["t","ext"],["lo","g"],["ww","w"],["Ġte","am"],["!","["],["am","ples"],["ĠE","ng"],["Ġstud","ents"],["Ġhe","ad"],["Ġl","aw"],["Ġkn","own"],["ple","ment"],["E","x"],["le","ction"],["id","es"],["Ġm","aterial"],["ĠE","n"],["A","P"],["htt","p"],["Ġsu","ccess"],["Ġen","ergy"],["Ġ",">"],["ĠC","ol"],["um","e"],["Ġinv","ol"],["ĠW","hen"],["Ġcomp","ut"],["Ġn","et"],["Ġr","is"],["Ġare","a"],["Ġsign","ific"],["are","nt"],["A","C"],["om","en"],["ĠO","r"],["-","l"],["i","i"],["ol","ution"],["Ġc","ertain"],["/","b"],["Ġp","ath"],["ur","ther"],["ivers","ity"],["Ġu","nt"],["Ġt","imes"],["Ġval","ues"],["I","S"],["i","pp"],["ord","ing"],["a","pe"],["Ġg","ive"],["Ġrequ","ire"],["ul","ation"],["ig","ure"],["a","j"],["Ġw","r"],["Ġf","ood"],["v","ious"],["Ġp","ay"],["âĢ","ľ"],["Ġchild","ren"],["Ġdevelop","ment"],["ĠA","pp"],["iv","ed"],["ab","ly"],["get","her"],["Ġv","ol"],["ro","p"],["Ġf","riend"],["Ġse","ver"],["as","k"],["Ġtr","ue"],["Ġle","g"],["t","ed"],["it","le"],["re","ct"],["Ġto","gether"],["Ġle","ft"],["Ġc","ell"],["Ġc","ult"],["Ġresult","s"],["Ġpartic","ular"],["u","se"],["Ġrem","ain"],["i","ver"],["Ġab","le"],["Ġspec","ial"],["Ġinv","est"],["ĠO","n"],["Ġcom","b"],["Ġt","re"],["Ġin","it"],["ĠW","ith"],["Ġwor","ks"],["ic","le"],["ĠHow","ever"],["ĠCom","m"],["oc","us"],["!","Ċ"],["er","c"],["Ġm","en"],["end","ed"],["Ġm","ov"],["\"",","],["Ġf","ull"],["Ġp","ut"],["}","Ċ"],["2","7"],["Ġch","all"],["os","s"],["2","6"],["n","ame"],["ĠI","m"],["Ġgo","ing"],["Ġt","urn"],["Ġh","y"],["Ġadd","ress"],["Ġcontro","l"],["Ġb","ody"],["Ġhum","an"],["19","9"],["s","p"],["Ġcharact","er"],["2","8"],["!","ĊĊ"],["ill","s"],["Ġbel","ie"],["ent","al"],[")",";Ċ"],["Ġp","a"],["s","c"],["ut","ure"],["Ġpro","b"],["Ġph","ys"],["ur","y"],["Ġh","ard"],["Ġsim","ple"],["ĠC","ont"],["f","er"],["ir","d"],["us","h"],["ut","ions"],["at","ural"],["Ġd","ig"],["Ġneed","s"],["Ġsever","al"],["op","y"],["Ġon","line"],["Ġal","ong"],["2","1"],["Ġagain","st"],["Ġp","age"],[")",".Ċ"],["Ġb","ook"],["t","a"],["il","ities"],["ive","ly"],["Ġl","o"],["Ġrese","arch"],["Ġdet","erm"],["ĠTh","at"],["Ġd","ri"],["Ġpot","ential"],["og","raph"],["cl","us"],["Ġquest","ion"],["Ġex","ist"],["Ġcon","d"],["S","o"],["A","S"],["Ġas","k"],["Ġne","cess"],["Ġ","ess"],["Ġgo","ver"],["Ġserv","ices"],["Ġother","s"],["C","H"],["ĠL","et"],["le","ft"],["an","e"],["E","T"],["el","f"],["Ġfam","ily"],["Ġsing","le"],["oo","se"],["Ġs","w"],["Ġt","erm"],["h","aps"],["o","ot"],["Ġ","es"],["(","x"],["Ġam","ong"],["A","M"],["u","ild"],["Ġ",","],["Ġbe","come"],["ect","ed"],["Ġout","put"],["Ġcomple","x"],["or","th"],["ĠT","r"],["Ġwh","y"],["Ġin","put"],["-","ĊĊ"],["Ġg","ame"],["E","D"],["A","nd"],["du","ct"],["l","i"],["Ġmark","et"],["ore","d"],["Ġbe","low"],["at","ors"],["Ġm","ar"],["Ġin","tern"],["Ġh","ig"],["Ġvers","ion"],["ou","th"],["Ġch","o"],["Ġcal","cul"],["R","e"],["t","r"],["Ġed","uc"],["ic","ro"],["o","le"],["Ġb","ro"],["one","y"],["6","0"],["Ġf","ac"],["Ġm","ess"],["c","al"],["ate","ly"],["Ġf","our"],["Ġ","err"],["ĠA","ll"],["Ġs","ide"],["is","ed"],["Ġcour","se"],["Ġd","ue"],["Ġl","ab"],["i","res"],["ar","get"],["Ġne","ver"],["Ġwork","ing"],["Ġm","us"],["Ġhtt","ps"],["ĠT","e"],["Ġf","ar"],["om","et"],["Ġk","ind"],["/","p"],["E","M"],["ul","es"],["ight","s"],["om","s"],["Ġg","l"],["Ġac","ross"],["y","stem"],["Ġpoint","s"],["Ġnum","bers"],["Ġst","ep"],["R","O"],["Ġd","ays"],[">","ĊĊ"],["og","n"],["ĠCh","rist"],["a","pt"],[".","s"],["Ġgover","n"],["ward","s"],["Ġchang","es"],["'","re"],["im","um"],["iz","ing"],["Ġth","ought"],["l","ished"],["id","d"],["il","es"],["ib","ility"],["Ġapplic","ation"],["Ġgener","al"],["]","Ċ"],["Ġsignific","ant"],["con","om"],["Ġper","iod"],["l","er"],["Ġf","ield"],["our","s"],["Ġcomple","te"],["Ġmon","th"],["m","m"],["ĠN","o"],["pl","ic"],["Ġim","plement"],["2","9"],["est","s"],["âĢĻ","re"],["Ġwe","bs"],["Ġle","arning"],["Ġs","ocial"],["Ġfil","es"],["Ġg","en"],["Ġhist","ory"],["l","ab"],["Ġp","ort"],["P","ro"],["Ġs","ize"],[";","ĊĊ"],["ific","ation"],["her","s"],["Ġsim","ilar"],["Ġto","t"],["Ġprof","ess"],["ĠG","od"],["Ġf","ocus"],["cri","ption"],["ist","ic"],[",","âĢĿ"],["Ġre","ally"],["Ġun","ique"],["Ġsystem","s"],["Ġdisc","uss"],["The","re"],["Ġne","ar"],["Ġperson","al"],["Ġha","ving"],["ep","end"],["led","ge"],["W","hat"],["ĠA","N"],["Ġcomp","on"],["Ġunt","il"],["ĠB","e"],["ct","or"],["read","y"],["-","g"],["u","ro"],["Ġse","lect"],["-","w"],["Ġsh","ort"],["Ġben","ef"],["st","r"],["ĠĠĠĠ","ĠĠ"],["Ġf","ore"],["Ġo","bs"],["Ġrequ","ired"],["Ġd","one"],["Ġf","uture"],["8","0"],["ar","ing"],["it","er"],["as","ing"],["W","h"],["C","om"],["ibr","ary"],["com","p"],["ot","t"],["ĠA","t"],["Ġaut","hor"],["d","d"],["Ġexp","lo"],["ĠS","u"],["r","m"],["ft","ware"],["Ġstr","ong"],["ES","S"],["ĠĠĠĠĠĠĠĠ","ĠĠĠ"],["Ġlangu","age"],["I","D"],["ur","ation"],["ys","is"],["Ġle","ast"],["ĠM","an"],["Ġc","rit"],["Ġp","ress"],["Ġapp","ear"],["Ġappro","ach"],["ri","x"],["Ġind","ust"],["ver","se"],["Ġl","ow"],["Ġc","r"],["Ġev","ent"],["Ġim","age"],["g","ed"],["Ġb","ig"],["Ġme","et"],["act","ion"],["in","ary"],["====","===="],["H","ow"],["ĠA","P"],["Ġsol","ution"],["Ġs","ays"],["e","b"],["Ġl","ove"],["Ġm","ind"],["Ġdif","f"],["Ġm","akes"],["b","ack"],["Ġwhe","ther"],["ap","ter"],["c","er"],["m","y"],["con","t"],["Ġm","ax"],["Ġ","Â"],["if","t"],["Ġl","ength"],["ure","d"],["C","on"],["d","ate"],["ĠQ","u"],["c","hes"],["IN","G"],["Ġa","ir"],["Ġstr","ateg"],["os","p"],["Ġr","ange"],["e","y"],["il","t"],["Ġfe","atures"],["Ġe","ither"],["'",","],["ĠU","s"],["Ġrel","ations"],["Ġcomm","and"],["at","form"],["ne","y"],["Ġp","ain"],["ative","ly"],["id","s"],["Ġe","ver"],["Ġhe","art"],["Ġcont","ent"],["Ġcount","ry"],["Ġs","ource"],["ĠAmeric","an"],["Ġass","oci"],["am","b"],["n","s"],["Ġd","at"],["ric","t"],["Ġper","haps"],["Ġra","d"],["Ġresp","ons"],["f","ect"],["Ġproble","ms"],["ĠF","r"],["n","ow"],["-","in"],["ak","en"],["g","or"],["Ġal","ready"],["B","ut"],["Ġm","ag"],["f","ort"],["ver","age"],["Ġter","ms"],["Ġa","way"],["re","am"],["iel","ds"],["o","pe"],["olog","ical"],["Ġl","ay"],["Ġrec","ord"],["Ġam","ount"],["i","ans"],["Ġpos","ition"],["c","ing"],["Ġconf","ig"],["f","ig"],["Ġcle","ar"],["Ġtyp","es"],["Ġcond","itions"],["Ġoff","er"],["Ġex","act"],["Ġres","pect"],["Ġcommun","ity"],["Ġc","irc"],["lob","al"],["Ġw","ind"],["g","o"],["id","ence"],["in","a"],["ĠâĢ","ĺ"],["Ġpar","amet"],["pl","ace"],["Ġquest","ions"],[")","$"],["Ġs","qu"],["Ġex","ce"],["Ġon","ce"],["Ġstr","ing"],["Ġet","c"],["Ġm","ach"],["l","s"],["O","U"],["in","o"],["ĠUn","iversity"],["Ġp","ast"],["W","hen"],["r","t"],["Ġansw","er"],["Ġf","low"],["Ġar","g"],["Ġcomp","any"],["ar","ies"],["Ġn","atural"],["ĠC","an"],["a","f"],["Ġele","ments"],["Ġh","old"],["ou","d"],["s","ide"],["Ġemp","loy"],["Ġy","et"],["L","E"],["m","ost"],["Ġess","ential"],["end","ing"],["er","o"],["Ġn","orm"],["ĠL","e"],["pport","un"],["at","us"],[".","js"],["Ġs","ite"],[".","io"],["Ġbe","gin"],["S","E"],["ful","ly"],["al","f"],["it","ing"],["Ġgra","ph"],["Ġfun","ctions"],["d","is"],["ĠI","nt"],["o","x"],["Ġtot","al"],["s","et"],["Ġca","us"],["Ġeas","y"],["Ġcor","rect"],["a","im"],["3","3"],["Ġqu","ality"],["he","mat"],["an","ced"],["Ġd","ocument"],["Ġocc","ur"],["Ġf","und"],["-","st"],["Ġl","a"],["ort","s"],["Ġf","urther"],["Ġl","ot"],["Ġall","ows"],["y","thon"],["al","es"],["m","ing"],["ĠO","ne"],["ic","ult"],["Ġqu","ick"],["Ġimpro","ve"],["Ġens","ure"],["'","ll"],["Ġprovid","es"],["Ġear","ly"],["Ġproduct","s"],["T","HE"],["Ġen","ough"],["n","ces"],["Ġiss","ues"],["Ġl","and"],["is","ing"],["D","R"],["gor","ith"],["ĠM","ay"],["Ġexper","i"],["Ġmulti","ple"],["it","or"],["Ġdes","crib"],["Ġsh","all"],["Ġ","ill"],["rib","ution"],["Ġan","t"],["W","ait"],["Ġe","y"],["t","ies"],["4","5"],["Ġyou","ng"],["c","le"],["ht","ml"],["Ġeff","ic"],["w","ord"],["w","ith"],["ĠUn","ited"],["Ġto","day"],["Ġwor","ds"],[".p","ng"],["d","ict"],["Ġw","ays"],["Ġopt","ions"],["im","g"],["aj","or"],["Ġs","at"],["re","g"],[".","S"],["l","ight"],["Ġsu","gg"],["Ġf","r"],["ĠS","he"],["`","Ċ"],["sel","ves"],["O","M"],["ĠD","es"],["p","art"],["Ġpr","int"],["j","oy"],["EN","T"],["Ġm","ill"],["Ġm","ot"],["r","c"],["Ġre","ason"],["3","5"],["Ġcom","es"],["Ġdef","ault"],["Ġpr","in"],["Ġs","elf"],["or","ld"],["/","t"],["y","m"],["Ġmain","tain"],["p","ly"],["Ġmethod","s"],["ru","ction"],["ide","o"],["Ġcol","lect"],["ĠSt","ates"],["/","c"],["âĢ","ĵ"],["3","2"],["Ġact","iv"],["Ġimp","act"],["-","h"],["ch","ie"],["Ġsub","ject"],["u","x"],["Ġo","pportun"],["Ġcre","ated"],["ur","ch"],["on","es"],["Ġwe","b"],["it","es"],["Ġunderstand","ing"],["p","i"],["Ġcontin","u"],["I","V"],["ir","t"],["Âł","Âł"],["Ġaut","om"],["ar","r"],["Ġt","ell"],["Ġex","ec"],["Ġprovid","ed"],["og","le"],["Ġp","ub"],["Ġwebs","ite"],["Ġv","ia"],["en","e"],["Ġc","y"],["Ġl","ater"],["Ġ","_"],["Ġchall","eng"],["ĠM","ar"],["p","m"],["Ġt","arget"],["Ġlook","ing"],["ĠAd","d"],["Ġse","qu"],["ĠC","al"],["Ġde","g"],["on","se"],["ĠI","N"],["dition","al"],["Ġro","le"],["Ġpre","vious"],["um","p"],["Ġpri","v"],["ou","ra"],["Ġse","arch"],["Ġf","lo"],["3","9"],["C","T"],["Ġre","le"],["Ġnecess","ary"],["ens","ion"],["r","s"],["Ġres","ources"],["m","it"],["av","a"],["Ġinst","ead"],["um","ents"],["re","l"],["Ġorig","inal"],["Ġknow","ledge"],["Ġadd","ed"],["ra","ft"],["th","ough"],["Ġris","k"],["g","ing"],["Ġe","conom"],["Ġo","ption"],["Ġclo","se"],["le","y"],["ac","y"],["Ġwe","ek"],["Ġt","able"],["Ġneed","ed"],["c","he"],["y","pe"],["c","ol"],["b","l"],["Ġent","ire"],["ĠP","r"],["Ġbuild","ing"],["le","x"],["un","e"],["Ġcon","c"],["n","ew"],["Ġc","ases"],["ĠC","ent"],["Ġmem","bers"],["Ġre","comm"],[")",")"],["3","6"],["Ġd","om"],["Ġdis","e"],["Ġm","oney"],["Ġstand","ard"],["Ġ","//"],["ĠC","o"],["pec","ially"],["Ġth","ough"],["Ġm","om"],["math","b"],["ud","e"],["ag","ing"],["Ġide","a"],["Ġinst","ance"],["Ġw","omen"],["Ġph","ot"],["Ġhig","her"],["N","ow"],["Ġne","g"],["Ġexp","ress"],["b","ra"],["ly","ing"],["Ġj","our"],["Ġperform","ance"],["Ġreg","ard"],["Ġl","ink"],["p","ose"],["Ġsu","per"],["Ġt","w"],["ill","ed"],["c","d"],["ĠA","ss"],["oh","n"],["Ġpa","per"],["oc","s"],["T","ER"],["ro","ll"],["E","L"],["od","es"],["Ġwho","le"],["Ġb","it"],["Ġact","ually"],["Ġest","ab"],["c","ks"],["Ġ","..."],["res","p"],["Ġ$$","\\"],["res","h"],["e","ed"],["ound","s"],["Ġdoes","n"],["or","ks"],["ĠThe","n"],["Ġth","ing"],["Ġm","ass"],["Ġpol","ic"],["Ġtechn","ology"],["is","es"],["is","ter"],["ĠD","is"],["Ġp","ie"],["Ġan","n"],["Ġj","o"],["w","ise"],["Ġf","ix"],["Ġse","par"],["Ġare","as"],["Ġcan","not"],["Ġl","ive"],["av","es"],["ut","h"],["9","0"],["ĠT","ra"],["Ġa","ge"],["at","ter"],["Ġpre","vent"],["Ġpl","atform"],["erv","ice"],["al","se"],["itt","ed"],["Ġw","in"],["Ġhow","ever"],["(","\""],["Ġr","ate"],[".âĢĿ","Ċ"],["Ġus","ers"],["c","hed"],["u","ck"],["Ġtool","s"],["Ġste","ps"],["ĠD","o"],["ĠG","o"],["Ġcle","an"],["com","es"],["ĠP","re"],["ĠN","ot"],["Ġp","arent"],["Ġdef","in"],["Ġcol","or"],["Ġproper","ty"],[":",":"],["Ġf","requ"],["ul","a"],["6","4"],["ĠM","ed"],["`",","],["Ġus","es"],["Ġser","ver"],["n","ers"],["Ġm","ajor"],["Ġbe","aut"],["Ġf","ram"],["Ġen","joy"],["Ġt","alk"],["f","act"],["Ġinf","lu"],["ra","ms"],["Ġd","iv"],["Ġ","ut"],["Ġind","ic"],["Ġa","chie"],["Ġper","fect"],["Ġnet","work"],["iv","al"],["Ġwrit","ten"],["p","ri"],["O","T"],["Ġper","cent"],["ad","d"],["Ġh","ouse"],["mb","ol"],["il","s"],["ĠAP","I"],["a","i"],["Ġg","ot"],["Ġbeh","av"],["ĠU","S"],["Ġpos","itive"],["Ġdiff","icult"],["yn","am"],["Ġequ","al"],["Ġab","s"],["enc","ies"],["Ġgovern","ment"],["Ġele","ment"],["Ġse","em"],["Ġwr","ite"],["Ġch","oose"],["Ġa","ction"],["Ġal","gorith"],["Ġst","ory"],["Ġmeas","ure"],["u","ra"],["at","ives"],["cur","ity"],["L","et"],["-","to"],["Ġsh","are"],["Ġs","ent"],["Ġgrow","th"],["_","i"],["ĠSt","ate"],["ĠAN","D"],["Ġus","ually"],["Ġtem","per"],["em","pt"],["O","L"],["Ġcont","act"],["Ġint","rodu"],["B","y"],["Ġb","i"],["Ġwor","d"],["Ġstruct","ure"],["ĠS","ome"],["Ġev","ents"],[")",":"],["Ġr","ather"],["Ġc","ause"],["av","or"],["Ġrun","ning"],["ain","s"],["Ġcontain","s"],["Ġcon","cept"],["is","on"],["Ġequ","ation"],["Ġsub","st"],["u","ation"],["|","Ċ"],["Ġmanag","ement"],["Ġex","am"],["â","Ķ"],["ir","it"],["Ġacc","ording"],["Ġl","ower"],["uro","pe"],["3","1"],["ĠCom","p"],["Ġen","h"],["3","7"],["Ġc","ame"],["he","l"],["ĠY","our"],["e","le"],["C","l"],["an","ch"],["Ġl","ines"],[".\"","ĊĊ"],["ut","es"],["ra","p"],["Ġtra","ining"],["0","1"],["Ġob","tain"],["Ġc","ut"],["Ġit","self"],["ĠĠĠĠĠĠĠĠĠĠĠĠĠĠĠĠ","ĠĠĠĠĠĠĠĠĠĠĠĠĠĠĠĠ"],["il","it"],["Ġincre","ase"],["Ġs","ection"],["Ġobs","erv"],["}","$$"],["d","o"],["ĠB","l"],["w","here"],["(","\\"],["ĠM","e"],["ire","ction"],["Ġrec","ogn"],["oci","ety"],["Ġde","ep"],["ock","er"],["Ġoff","ers"],[".m","d"],["O","n"],["ac","ed"],["rib","ute"],["Ġsu","bs"],["Ġg","e"],["(","'"],["Ġins","ide"],["Ġeng","ine"],["Ġan","g"],["he","ad"],["Ġcon","dition"],["Ġpat","tern"],["C","ont"],["Ġac","cept"],["h","ing"],["Ġpart","s"],["os","it"],["Ġes","pecially"],["Ġse","en"],["Ġanal","ysis"],["'","ve"],["O","S"],["ic","ense"],["Ġd","am"],["ri","pt"],["ear","ch"],["Ġoff","ic"],["Ġset","t"],["I","P"],["st","yle"],[".","html"],["t","ra"],["Ġt","aken"],["Ġsc","ient"],["Ġre","view"],["AD","DR"],["Ġso","ftware"],["re","f"],["'","m"],["Ġs","ens"],["se","qu"],["ch","an"],["ĠC","ar"],["Ġdet","ails"],["Ġsc","ript"],["Ġser","ies"],["pp","er"],["ĠR","ep"],["Ġrequ","est"],["ĠC","he"],["Ġdo","ing"],["k","en"],["]","ĊĊ"],["ove","red"],["av","ing"],["ADDR","ESS"],["nd","om"],["9","9"],["a","ff"],["ast","ic"],["Ġreg","ular"],["un","ction"],["Ġc","ity"],["..",".Ċ"],["Ġmod","ern"],["Ġtreat","ment"],["ĠM","od"],["Ġn","ature"],["ra","d"],["3","4"],["n","ov"],["Ġindividual","s"],["Ġgrou","ps"],["lo","ck"],["Ġb","al"],["Ġd","r"],["Ġerr","or"],["d","ef"],["Ġfe","ature"],["_","ADDRESS"],["om","an"],["v","is"],["all","s"],["g","round"],["Ġun","it"],["Ġg","round"],["an","ks"],["Ġb","ound"],["Ġsim","ply"],["ĠG","e"],["b","it"],["\"",">"],["h","y"],["Ġd","ou"],[".","c"],["il","i"],["g","en"],["m","p"],["g","s"],["er","al"],["ang","le"],["Ġtra","ck"],["Ġmat","ter"],["c","ial"],["Ġf","ail"],["ĠO","ur"],["Ġs","ense"],["u","ff"],["th","at"],["Ġt","akes"],["Ġexact","ly"],["cre","t"],["Ġpack","age"],["Ġstart","ed"],["Ġs","un"],["Ġel","se"],["m","ber"],["Ġqu","ant"],["Ġsur","face"],["Ĩ","Ĵ"],["Ġsugg","est"],["Ġp","lease"],["Ġpartic","ip"],["s","y"],["Ġpr","im"],["Ġf","ace"],["Ġbre","ak"],["am","s"],["âĢĻ","ll"],["z","e"],["Ġcons","um"],["Ġdi","ag"],["ĠSt","ud"],["]",","],["um","ber"],["ĠE","urope"],["Ġblo","od"],["Ġpop","ular"],["Ġ","%"],["Ġexplo","re"],[".","e"],["Ġlo","ad"],["Ġsh","ows"],["en","n"],["Ġ","!"],["id","th"],["Ġh","ours"],["\"",",Ċ"],["wh","ich"],["ĠP","er"],["Ġg","lobal"],["iqu","es"],["Ġb","ring"],["Ġassoci","ated"],["3","8"],["ĠA","m"],["`","ĊĊ"],["ist","ance"],["at","ory"],["ach","ing"],["Ġc","red"],["Ġ","@"],["Ġdesign","ed"],["Ġcreat","ing"],["Ġindust","ry"],["med","i"],["Ġb","ar"],["0","5"],["Ġinit","ial"],["ag","s"],["Ġcons","ist"],["Ġpol","it"],["ĠM","y"],["Ġ","^"],["W","ith"],["Ġiss","ue"],["Ġhist","or"],["Ġmus","ic"],["Ġprodu","ction"],["Ġsol","utions"],["Ġdist","ance"],["ĠH","is"],["q","rt"],["Ġw","ide"],["al","ing"],["b","ook"],["S","h"],["ĠA","b"],["Ġaddition","al"],["T","H"],["Ġt","aking"],["en","ed"],["Ġl","oss"],["Ġprot","ect"],["Ġsome","one"],["-b","ased"],["Ġa","ud"],["Ġh","ost"],["Ġthrough","out"],["Ġg","ives"],["old","er"],["H","e"],["co","ver"],["}","ĊĊ"],["I","m"],["at","est"],["Ġw","ar"],["Ġlevel","s"],["Ġav","oid"],[".","t"],["re","w"],["anc","ial"],["Ġd","raw"],["Ġm","or"],["Ġlike","ly"],["Ġbu","ilt"],["im","ent"],["Ġvis","it"],["Ġh","alf"],["Ġre","d"],["am","ed"],["7","0"],["ur","s"],["Ġf","ive"],["Ġrel","ated"],["Ġl","iter"],["U","n"],["et","er"],["ers","on"],["clus","ion"],["Ġb","ase"],["A","G"],["Ġcomp","an"],["Ġb","row"],["Ġblo","ck"],["Ġeduc","ation"],["ri","ed"],["id","ed"],["rou","p"],["Ġem","ail"],["end","er"],["Ġpract","ice"],["os","ed"],["Ġcomp","et"],["Ġro","w"],["4","8"],["Ġim","m"],["j","ust"],["it","ch"],["o","pt"],["Ġto","wards"],["**","ĊĊ"],["Ġth","ird"],["Ġget","ting"],["Ġ",")"],["Ġor","d"],["Ġst","ra"],["=","\\"],["m","on"],["ar","c"],["f","ile"],["resp","ond"],["Ġevery","thing"],["|","|"],["Ġwe","ight"],["ĠS","im"],["ĠA","ct"],["Ġpre","c"],["Ġexp","ect"],["Ġv","ideo"],["S","S"],["Ġphys","ical"],["Ġd","er"],["Ġcons","id"],["](","#"],["Ġpo","ly"],["ĠG","ener"],["Ġl","ibrary"],["ist","ics"],["7","5"],["n","ection"],["Ġrem","ov"],["Ġmay","be"],["ke","y"],["Ġrequ","ires"],["n","al"],["Ġu","r"],["âĢ","¦"],["Ġmess","age"],["Ġd","est"],["p","oint"],["ed","s"],["un","t"],["ac","hes"],["_","d"],["Ġem","b"],["+","+"],["Ġd","irection"],["st","er"],["Ġdef","ined"],["Ġl","iving"],["Ġdiffere","nce"],["ol","ic"],["Ġf","ul"],["Ġsa","f"],["e","v"],["en","ing"],["Ġst","yle"],["ĠM","at"],["Ġbl","ack"],["Ġmat","rix"],["Ġp","air"],["Ġc","ru"],["ĠIn","tern"],["Ġmaterial","s"],["end","s"],["ag","ine"],["Ġ","Âł"],["Ġdirect","ly"],["ĠĠĠĠĠĠĠĠ","Ġ"],["-","n"],["ĠA","fter"],["Ġar","ch"],["or","ation"],["Ġar","ray"],["Ġdirect","ory"],["Ġst","ates"],["Ġhel","ps"],["et","ic"],["ĠG","u"],["Ġart","icle"],["Ã","©"],["Ġse","curity"],["Ġapp","l"],["f","rom"],["R","I"],["Ġc","opy"],["ol","l"],["Ġvari","ables"],["ord","er"],["in","ks"],["Ġinclud","es"],["Ġh","om"],["Ġex","c"],["ĉ","ĉ"],["Ġmach","ine"],["Ġext","ra"],[")","("],["i","ation"],["ac","hed"],["us","er"],["Ġtest","s"],["ĠY","ork"],["Ġsa","fe"],["Ġsk","ills"],["_","s"],["Ġvari","able"],["O","ne"],["ĠR","eg"],["Ġr","out"],["m","od"],["ell","ing"],["av","ig"],["al","t"],["ĠM","ore"],["Ġal","most"],["ĠJ","ohn"],["ffic","ient"],["Ġconst","ant"],["Ġtra","vel"],["]","["],["Ġnum","er"],["eg","in"],["re","ed"],["ec","ause"],["Ġfriend","s"],["ab","ase"],["Ġthem","selves"],["Ġse","c"],["Ġanal","y"],["Ġrel","ig"],["4","4"],["Ġnorm","al"],["o","ly"],["Ġhtt","p"],["Ġc","as"],["Ġcomm","it"],["Ġf","it"],["Ġpre","dict"],["Ġthe","ory"],["Ġn","ode"],["f","l"],["Ġâ","ĨĴ"],["Ġdise","ase"],["..","/"],["Ġcl","aim"],["Ġreg","ion"],["A","B"],["act","ions"],["Ġdis","play"],["Ġmodel","s"],["g","est"],["m","ore"],["Ġ","vert"],["Ġfor","ce"],["Ġhe","av"],["or","age"],["ic","les"],["idd","le"],["Ġconc","ern"],["Ġfact","ors"],["$",","],["Ġm","ix"],["Ġd","en"],["Ġas","pect"],["y","l"],["âĶ","Ģ"],["ĠD","ep"],["Ġcont","ext"],["ĠD","r"],["Ġ}","Ċ"],["Ġn","ight"],["tern","atively"],["s","u"],["Ġyour","self"],["Ġbo","x"],["Ġs","ample"],["Ġca","pt"],["un","ch"],["Ġsom","et"],["A","t"],["it","ude"],["Ġexpl","ain"],["Ġp","ict"],["Ġf","ra"],["5","5"],["Ġg","ain"],["ĠP","ar"],["Ġcol","um"],["Ġactiv","ities"],["Ġc","ou"],["Ġpur","ch"],["Ġlong","er"],["er","ver"],["Ġev","al"],["Ġw","ond"],["ord","in"],["Ġra","ndom"],["Ġeas","ily"],["ir","m"],["ĠU","se"],["c","ode"],["Ġst","ay"],["Ġqu","ite"],["is","ions"],["'","Ċ"],["Ġcell","s"],["r","id"],["ict","ion"],["Ġde","b"],["Ġto","ok"],["Ġit","ems"],["o","ber"],["ĠN","ational"],["ĠH","ere"],["Ġwh","ose"],["Ġresp","onse"],["le","ep"],["âĢĻ","ve"],["Ġsh","own"],["Ġro","om"],["ĠP","art"],["Ġconsid","ered"],["e","qu"],["n","own"],["Ġval","id"],["-","re"],["Ġcor","respond"],["Ġmonth","s"],["Ġlim","it"],["r","ate"],["ul","ations"],[".\"","Ċ"],["Ġa","im"],["19","8"],["if","ul"],["Ġim","ages"],["Ġdist","ribution"],["Ġbu","y"],["_","t"],["Ġo","pp"],["Ġpl","ant"],["Ġper","m"],["Ġ","ver"],["in","ally"],["cl","ass"],["Ġcont","ribut"],["Ġmat","ch"],["Ġapplic","ations"],["Ġcomput","er"],["er","ve"],["ĠC","ons"],["h","ood"],["d","om"],["ĠA","g"],["Ġproper","ties"],["ess","ion"],["ĠWh","ile"],["ĠA","f"],["ĠF","rom"],["ens","ive"],["fere","nces"],["U","R"],["ĠE","ar"],["um","b"],["Ġag","o"],["Ġevery","one"],["Ġd","ate"],["Ġwrit","ing"],["Ġsy","mbol"],["bo","x"],["A","ll"],["Ġcl","ick"],["Ġg","ames"],["Ġsomet","imes"],["y","ond"],["Ġsc","ience"],["Ġro","ot"],["Ġcontin","ue"],["Ġmom","ent"],["Ġmed","ia"],["Ġwh","ite"],["ac","he"],["Ġ","?"],["v","ant"],["Ġmean","ing"],["Ġan","im"],["19","1"],["d","a"],["Ġj","ob"],["ail","y"],["Ġst","ore"],["Ġex","erc"],["Ġspec","ies"],["ĠN","ow"],["or","por"],["Ġmed","ical"],["l","ike"],["A","IL"],["Ġprin","ci"],["s","um"],["Ġm","iss"],["Ġs","il"],["â","Ī"],["er","a"],["Ġf","inal"],["le","ge"],[".","sh"],["d","ing"],["re","ate"],["ĠM","r"],["ĠEng","lish"],["Ġs","ix"],["--","-ĊĊ"],["Ġaff","ect"],["/","v"],["art","ment"],["O","D"],["Ġde","ath"],["/","g"],["ĠS","T"],["ag","ement"],["Ġ=",">"],["Ġr","ules"],["ub","e"],["c","os"],["ĠE","d"],["un","g"],["Ġlead","ing"],["Ġuse","ful"],["ie","f"],["Ġt","ax"],["l","im"],["Ġgreat","er"],["l","t"],["Ġh","or"],["o","on"],["Ġincre","asing"],["is","f"],["min","ist"],["Ġw","ait"],["Ġex","amples"],["Ġn","ames"],["Ġpri","or"],["Ġpr","ice"],["if","f"],["Ġab","ility"],["oun","ter"],["Ġchalleng","es"],["Ġfr","ont"],["Ġt","ree"],["Ġco","ver"],["6","5"],["Ġprovid","ing"],["Ġbra","nd"],["bo","ard"],["Ġtrans","form"],["b","on"],["Ġon","es"],["Ġeffect","ive"],["Ġcl","ient"],["Ġdown","load"],["ar","row"],["Ġme","chan"],["Ġc","ross"],["Ġd","im"],["f","low"],["Ġmax","imum"],["Ġo","p"],["Ġf","all"],["Ġbelie","ve"],["____","____"],["Ġstre","ng"],["ĠS","ystem"],["y","p"],["u","fact"],["Ġ","ri"],["o","res"],["Ġb","ott"],["Ġpress","ure"],[".","j"],["o","ps"],["5","00"],["Ġdig","ital"],["Ġc","amp"],["Ġclo","s"],["Ġsequ","ence"],["ĠD","ata"],["iz","es"],["0","9"],["pp","ing"],["Ġspe","ed"],["ac","c"],["Ġc","ard"],["0","8"],["Ġind","epend"],["\"","ĊĊ"],["h","ib"],["Ġprob","ably"],["Ġa","verage"],["Ġcount","ries"],["ĠU","p"],["dis","play"],["Ġnot","e"],["it","able"],["Ġenc","oura"],["s","on"],["Ġfin","ancial"],["ve","y"],["Ġapp","ly"],["com","ing"],["Ġatt","ention"],["et","a"],["Ġtry","ing"],["ĠJ","an"],["Ġinclud","ed"],["Ġl","ives"],["Ġcompon","ents"],["s","qrt"],["in","st"],["k","ing"],["Ġins","p"],["Ġh","ope"],["ĠW","orld"],["Ġout","side"],["Ġbec","ame"],["her","n"],["ĠR","em"],["t","d"],[")","]("],["Ġcharact","ers"],["ew","ork"],["Ġrec","ent"],["Ġal","tern"],["Ġf","ast"],["as","c"],["Ġdem","on"],["Ġeffect","s"],["ill","i"],["Ġval","u"],["ty","pe"],["Ġtra","ditional"],["al","y"],["M","L"],["-","pro"],["R","es"],["Ġis","n"],["Ġstart","ing"],["Ġproject","s"],["0","7"],["e","es"],["re","ci"],["Ġup","d"],["en","ge"],["ag","er"],["Ġre","v"],["Ġobject","s"],["r","ast"],["Ġin","nov"],["Ġany","thing"],["ĠP","ython"],["h","ips"],["ĠN","orth"],["Ġpre","p"],["stand","ing"],["Ġquick","ly"],["Ġso","on"],["_","n"],["Ġappro","pri"],["a","e"],["g","ment"],["Ġmill","ion"],["-","S"],["i","ol"],["$","\\"],["o","ff"],["ign","ed"],["le","ment"],["i","us"],["Ġse","ems"],["Ġcompan","ies"],["Ġcho","ice"],["$","ĊĊ"],["Ġs","ound"],["Ġdet","ail"],["Ġprog","rams"],["Ġu","nd"],["Ġte","ac"],["Ġrece","ive"],["or","ial"],["Ġsp","irit"],["Ġprog","ress"],["ĠP","e"],["Ġbas","ic"],["U","S"],["ar","ily"],["ĠM","in"],["Ġ-",">"],["Ġent","er"],["Ġbenef","its"],["z","z"],["Ġb","ir"],["ĠS","chool"],["ĠA","ut"],["in","ct"],["Ġref","lect"],["ph","a"],["sh","ip"],["Ġz","ero"],["/","l"],["imate","ly"],["Ġredu","ce"],["Ġfe","ed"],["Ġsc","he"],["ĠS","et"],["Ġread","ing"],["Ġform","ula"],["it","ution"],["Ġst","ri"],["Ġf","ire"],["ify","ing"],["--","-Ċ"],["Ġbeh","ind"],["Ġform","at"],["Ġcrit","ical"],["ou","ch"],["Ġd","ynam"],["m","ar"],["Ġhe","at"],["Ġmem","ory"],["Ġloc","ation"],["Ġsqu","are"],["Ġcon","duct"],["Ġatt","ack"],["Ġed","ge"],["Ġth","us"],["Ġact","ivity"],["il","le"],["0","4"],["Ġfor","ms"],["Ġw","ent"],["Ġche","m"],["Ġtechn","iques"],["Ġre","ach"],["(","n"],["Ġem","erg"],["Ġprofess","ional"],["con","fig"],["Ġconfig","uration"],["Ġconst","ruct"],["U","T"],["Ġb","ooks"],["l","or"],["Ġw","alk"],["Ġpro","pos"],["P","l"],["Ġc","ook"],["19","0"],["py","thon"],["he","t"],["u","el"],["Ġs","low"],["ĠTr","ans"],["Ġcompon","ent"],["0","6"],["re","me"],["Ġright","s"],["ag","ed"],["re","t"],["on","y"],["iz","ations"],["ib","er"],["r","ated"],["iv","il"],["Ġsu","st"],["N","o"],["ous","ly"],["pr","int"],["g","ram"],["Ġst","at"],["Ġcom","fort"],["Ġsaf","ety"],["ĠD","ef"],["Ġbe","yond"],["it","ute"],["ĠHe","alth"],["i","et"],["Ġcol","lection"],["Ġdev","ice"],["tern","al"],["Ġm","icro"],["ĠP","res"],["L","I"],["Ġoper","ations"],["Q","u"],["ĠAmeric","a"],["ak","er"],["r","ig"],["ry","pt"],["os","ing"],["S","e"],["Ġalgorith","m"],["Ġmat","hemat"],["ĠS","outh"],["Ġeffic","ient"],["A","pp"],["Ġf","avor"],["con","st"],["Ġatt","empt"],[".","d"],["ell","ow"],["Ġdevelop","ed"],["}",","],["Ġover","all"],["Ġd","ra"],["ĠO","ct"],["Ġtemper","ature"],["CH","AP"],["/","w"],["ĠW","ait"],["Ġrem","ember"],["/","f"],["ce","ed"],["an","a"],["Ġparamet","ers"],["pp","ed"],["en","ced"],["##","###"],["ĠF","irst"],["Ġexperi","ences"],["ir","ing"],["Ġnot","hing"],["Ġpur","pose"],["ap","i"],["Ġpriv","ate"],["em","ic"],["rou","ght"],["Ġref","er"],["ĠG","erm"],["O","P"],["Ġp","ick"],["Ġcon","nection"],["]",":"],["Ġf","igure"],["Ġmin","utes"],["Ġopt","im"],["Ġpl","ug"],["ĠA","cc"],["math","rm"],["l","ier"],["ĠE","ach"],["al","le"],["Ġexist","ing"],["Ġs","ect"],[".","/"],["Ġcent","ury"],["ol","ar"],["ĠB","o"],["Ġw","on"],["it","ect"],["Ġcon","vers"],["d","own"],["Ġdid","n"],["Ġdeterm","ine"],["**","**"],["display","style"],["Ġjour","ney"],["ric","es"],["Ġprodu","ce"],["b","egin"],["AT","ION"],["Ġh","ot"],["Ġtest","ing"],["Ġsust","ain"],["Ġest","im"],["Ġbehav","ior"],["Ġsat","isf"],["Ġind","ex"],["/","Ċ"],["ro","om"],["Ġfor","ward"],["_","p"],["el","t"],["ist","ry"],["c","ation"],["Ġm","ention"],["Ġro","ad"],["Ġim","medi"],["i","ency"],["Ġtr","ust"],["th","is"],["Ġde","cl"],["Ġcru","cial"],["Ġcustom","ers"],["ĠH","ist"],["Ġcent","er"],["Ġs","n"],["4","7"],["Ġse","ason"],["in","ter"],["ï","¿"],["Ġfollow","s"],["Ġbe","comes"],["(","s"],["Ġstud","ies"],["Ġrecomm","end"],["ĠV","al"],["hen","s"],["t","ion"],["Ġstud","ent"],["Ġbro","ad"],["ol","es"],["ind","ows"],["Ġline","ar"],["Ġprocess","es"],["{","Ċ"],["Ġsy","m"],["ob","ile"],["----------------","----------------"],["Ġvis","ual"],["ï¿","½"],["Ġide","as"],["el","come"],["0","3"],["Ġapp","reci"],["Ġh","arm"],["at","ically"],["ĠM","on"],["Ġhe","ight"],["Ġexp","ression"],["und","red"],["p","id"],["d","f"],["Ġpat","ients"],["Ġpop","ulation"],["Ġrece","ived"],["Ġvol","ume"],["im","ages"],["{","{"],["ef","ore"],["ograph","y"],["igh","b"],["v","ar"],["-","y"],["Ġf","oot"],["ĠCh","ar"],["c","ient"],["ch","ange"],["as","ks"],["ĠS","m"],["ĠAf","ric"],["CHAP","TER"],["r","ite"],["ĠJ","ust"],["Al","ternatively"],["Ġre","lease"],["Ġem","ot"],["Ġc","at"],["Ġbeaut","iful"],["19","7"],["ER","S"],["H","ere"],["Ġl","ands"],["Ġd","ed"],["Ġsh","ape"],["P","h"],["t","es"],[":","**"],["im","port"],["Ġf","air"],["Ġad","apt"],["Ġlar","ger"],["Ġincre","ased"],["ĠS","ince"],["ro","id"],["Ġvari","ety"],["Ġgu","id"],["â","ĸ"],["I","R"],["row","n"],["Ġs","end"],["Ġ","id"],["Ġread","y"],["Ġc","ateg"],["ĠâĢ","¢"],["ĠU","nder"],["Ġask","ed"],["olog","ies"],["o","ice"],["Ġh","on"],["Ġconnect","ed"],["pl","ate"],["EM","AIL"],[")","="],["Ġcommun","ication"],["Ġl","if"],["ur","ance"],["Ġpub","lished"],["Ġh","ands"],["Ġdec","ision"],["Ġfl","u"],["0","2"],["Ġt","ask"],["3","00"],["ĠAr","t"],["ĠG","ra"],["Ġappro","x"],["I","nt"],["Ġachie","ve"],["oo","p"],["-","r"],["/m","aster"],["t","itle"],["Ġbe","gan"],["Ġsm","o"],["Ġrep","osit"],["a","ith"],["it","ation"],["$","."],["Ġsa","ve"],["a","res"],["Ġs","ort"],["ĠA","c"],["oc","ol"],["Ġsk","in"],["Ġinvest","ig"],["6","6"],["Ġear","th"],["us","ed"],["l","in"],["v","g"],["Ġve","ctor"],["4","9"],["Ġb","ur"],["Ġrequire","ments"],["d","iv"],["Ġpract","ices"],["ĠW","ar"],["Ġcont","ract"],["Ġg","reen"],["cl","es"],["Ġf","alse"],["Ġsc","reen"],["ter","m"],["ĠB","rit"],["N","ote"],["Ġadv","ant"],["Ġpolic","y"],["/",")"],["Ġn","ational"],["Ġco","ol"],["ill","ing"],["Ġass","um"],["ĠC","ount"],["i","able"],["Ġst","ories"],["Ġb","ad"],["Ġprom","ot"],["se","e"],["Ġdemon","str"],["Ġcommun","ities"],["Ġmov","ing"],["h","ost"],["/","re"],["Ġw","atch"],["ĠA","ug"],["por","ary"],["anc","ing"],["t","ime"],["ĠR","ec"],["Ġf","ields"],["Ġar","r"],["Ġman","ufact"],["Ġexp","ected"],["Ġn","avig"],["Ġm","ap"],["X","X"],["ab","ilities"],["ex","ample"],["he","nt"],["it","ter"],["x","y"],["Ġdat","abase"],["A","d"],["}","^{"],[".","py"],["7","8"],["Ġthere","fore"],["sy","ch"],["ĠM","ark"],["de","v"],["Ġd","aily"],["Ġinvol","ved"],["n","a"],["Ġs","ources"],["l","ist"],["Ġfe","et"],["Ġ","ir"],["Ġed","ges"],["h","old"],["Ġinst","ruct"],["T","r"],["Ġg","as"],["Ġsu","ff"],["ed","ia"],["Ġcost","s"],["act","ive"],["Ġc","am"],["ĠT","est"],["b","ut"],["Ġde","al"],["ĠO","pen"],["M","y"],["N","ame"],["ult","s"],["ig","en"],["ad","a"],["so","le"],["Ġvalu","able"],[")","\\"],["ĠInst","all"],["Ġadd","ing"],["ele","br"],["Ġopportun","ities"],["ang","er"],["ash","ing"],["Ġex","cept"],["F","rom"],["Ġin","form"],["Ġset","ting"],["ĠS","ee"],["i","os"],["Ġs","leep"],["Ġcol","lab"],["am","ent"],["Ġev","idence"],["Ġto","wn"],["Ġre","ference"],["ĠN","e"],["Ġup","date"],["Ġpass","ed"],["ĠIn","ter"],["Ġsur","round"],["U","s"],["Ġv","irt"],["Ġpro","ced"],["c","are"],["Ġ","]"],["Ġey","es"],["Ġm","ount"],["Ġgener","ate"],["ve","re"],["I","M"],["b","ar"],["4","2"],["Ġro","t"],["Ġwor","th"],["w","orks"],["F","irst"],["Ġinterest","ing"],["ĠN","et"],["Ġl","ed"],["k","nown"],["e","ps"],["Ġ\\","\\"],["Ġro","b"],["p","ack"],["Ġpl","ants"],["Ġcult","ure"],["ĠI","I"],["Ġparticular","ly"],["Ġgu","ide"],["Ġr","at"],["Ġill","ust"],["u","ed"],["Ġcurrent","ly"],["ĠP","ost"],["lic","k"],["Ġact","ive"],["Ġwr","ong"],["U","N"],["as","ons"],["Ġnew","s"],["el","ine"],["ĠĠĠĠĠĠĠĠ","ĠĠĠĠĠĠĠ"],["Ġpolit","ical"],["ĠS","ub"],["Ġmem","ber"],["r","im"],["Ġcustom","er"],["Ġl","ate"],["Ġplay","ers"],["p","ite"],["ĠWe","b"],["Ġo","il"],["Ġr","ule"],["ĠR","ed"],["Ġp","le"],["Ġstrateg","ies"],["ĠO","ver"],["ĠL","ear"],["Ġm","ode"],["Ġhe","ld"],["Ġset","s"],["Ġp","ages"],["erv","ices"],["Ġs","we"],["am","ing"],["Ġimport","ance"],["er","ies"],["s","ub"],["Ġa","ware"],["Ġw","ood"],["au","gh"],["Ġst","ress"],["re","es"],["d","es"],["/","n"],["Ġco","ordin"],["act","er"],["Ġn","amed"],["ĠI","D"],["Ġw","ild"],["Ġapp","e"],["/","j"],["Ġd","og"],["over","n"],["Ġt","ru"],["Ġful","ly"],["Ġass","ess"],["ens","ions"],["Ġequ","ations"],[".",")"],["Ġm","is"],["ĠF","e"],["ens","ity"],["Ġhim","self"],["C","ol"],["E","n"],["Ġpower","ful"],["Ġrese","arc"],["Ġre","pl"],["Ġar","ri"],["Ġleg","al"],["Ġh","undred"],["Ġprob","ability"],["Ġdeg","ree"],["c","an"],["Ġappropri","ate"],["Ġt","itle"],["Ġgo","es"],["ĠC","O"],["Ġw","arm"],["ĠR","et"],["Ġs","pl"],["ac","ity"],["....","...."],["9","5"],["ĠP","a"],["Ġfact","or"],["/","st"],["Ġth","ous"],["Ġgo","al"],["A","r"],["ĠA","ust"],["\"","."],["Ġinter","pre"],["ĠTe","chn"],["so","ft"],["Th","at"],["o","e"],["Ġtrans","l"],["ipp","ing"],["ĠChrist","ian"],["Ġt","en"],["ent","y"],["dition","ally"],["att","le"],["Ġs","rc"],["Ġst","op"],["Ġf","older"],["ip","ment"],["Ġd","ivid"],["Ġallow","ed"],["Ġm","er"],["-",">"],["ul","ate"],["ren","ch"],["Ġs","ociety"],["ĠH","T"],["m","en"],["Ġlead","ers"],["ĠS","ch"],["mathb","f"],["Ġve","h"],["Ġstate","ment"],["ĠA","pr"],["..",".ĊĊ"],["Ġrelations","hip"],["4","6"],["pt","oms"],["Ġne","ighb"],["Ġcan","cer"],["Ġhistor","ical"],["O","ur"],["qu","e"],["il","ies"],["Ġl","atest"],["Ġsuccess","ful"],["ro","l"],["ĠS","w"],["Ġcomp","re"],["d","ata"],["Ġsol","ve"],["r","or"],["ĠS","pec"],["ĠG","et"],["Ġd","ru"],["Ġchar","ge"],["}","^"],["c","ape"],["ĠGo","ogle"],["'","d"],["Ġsp","read"],["Ġoffic","ial"],["ic","ate"],[")",";"],["an","cy"],["in","ating"],["}","{\\"],["The","se"],["ĠC","ity"],["Ġelect","ric"],["Ġlim","ited"],["Ġbra","in"],["ĠO","ther"],["A","fter"],["ĠC","our"],["Ġneg","ative"],["Ġsh","ared"],["Ġpre","t"],["ĠH","er"],["Ġeas","ier"],["Ġst","ru"],["Ġtrans","port"],["Ġdev","ices"],["**",":"],["Ġcomp","ared"],["Ġthink","ing"],["Ġsa","w"],["Ġoff","ice"],["rodu","ction"],["he","st"],["Ġeval","u"],["ad","es"],["es","e"],["e","ch"],["ur","b"],["Ġse","x"],["Ġintern","ational"],["Ġb","ill"],["se","c"],["Q","L"],["Ġsp","ect"],["Ġgener","ally"],["Ġp","ull"],["ĠW","ell"],["ear","s"],["8","8"],["ĠEar","th"],["lo","cal"],["ge","bra"],["c","ast"],["Ġcomp","ute"],["Ġbo","ard"],["Ġto","ld"],["Ġdem","and"],["ĠS","ol"],["ĠO","ut"],["ol","ute"],["ish","ing"],["Ġ",".ĊĊ"],["Ġclass","es"],["Ġreposit","ory"],["t","imes"],[".","github"],["Ġmed","ic"],["_","m"],["Ġact","ual"],["Ġpie","ce"],["ption","al"],["Ġpl","aces"],["Ġle","ave"],["Ġmod","ule"],["Ġh","ab"],["Ġeff","orts"],["p","ace"],["Ġp","an"],["b","ash"],["Ġparamet","er"],["Ġeconom","ic"],["âĶĢ","âĶĢ"],["Ġreturn","s"],["t","est"],["Ġg","ir"],["Ġgrow","ing"],["st","ract"],["C","E"],["Ġc","elebr"],["Ġ","~"],["ar","ge"],["u","ge"],["Ġm","other"],["Ġn","ut"],["n","o"],["`","."],["P","S"],["Ġe","p"],["ust","er"],["Ġv","iol"],["I","G"],["e","ff"],["Ġf","resh"],["I","d"],["Ġser","ve"],["od","ing"],["Ġappl","ied"],["Ġrespons","ible"],["Ġestab","lish"],["Ġcom","pl"],["Ġexper","t"],["s","in"],["Ġa","w"],["Ġdam","age"],["Ġanim","als"],["I","F"],["Ġt","im"],["in","ite"],["ĠA","re"],["Ġopportun","ity"],["Ġ","Î"],["7","7"],["d","ocs"],["at","ur"],["ĠL","a"],["amb","da"],[".","y"],["S","u"],["on","ent"],["ĠE","l"],["ON","T"],["O","C"],["Ġhealth","y"],["ind","ex"],["ĠDe","velop"],["Ġhigh","ly"],["Ġd","ark"],["D","ata"],["ct","ors"],["Ġens","uring"],["e","ks"],["Ġ","```"],["ĠR","un"],["ĠUs","ing"],["Ġregard","ing"],["Ġcl","imate"],["le","an"],["ĠCh","urch"],["v","est"],["ĠO","f"],[".s","vg"],["Ġsim","pl"],["Ġcom","ing"],["Ġexec","ut"],["m","ary"],["ib","ly"],["Ġj","ud"],["U","L"],["Ġelect","ron"],["Ġmove","ment"],["Ġst","atus"],["im","age"],["Ġsh","ap"],["Â","°"],["ĠÂł","ĠÂł"],["Ġsc","en"],["Ġexce","ll"],["Ġman","age"],["in","c"],["Ġw","idth"],["h","a"],["-","M"],["u","ary"],["ĠGener","al"],["Ġc","ore"],["Ġre","ve"],["Ġschool","s"],["m","ission"],["_","c"],["ast","e"],["(","t"],["ĠR","el"],["I","s"],["ell","ig"],["Ġl","ooks"],["ro","ad"],["Ġdescrib","ed"],["ĠF","eb"],["Ġsmall","er"],["id","ge"],["Ġrem","ove"],["Ġbegin","ning"],["Ġsp","aces"],["Ġcar","ry"],["ĠD","on"],[")",":Ċ"],["Ġorgan","ization"],["Ġenh","ance"],["lo","s"],["in","y"],["ri","al"],["Ġsit","es"],["Ġa","x"],["Ġinstall","ed"],["Ġch","ann"],["Ġcontro","ll"],["Ġstra","ight"],["Ġthe","ore"],["Ġdef","ine"],["w","as"],["ĠSc","ience"],["Ġext","reme"],["N","ew"],["Ġ","Ã"],["Ġparent","s"],["6","8"],["Ġtyp","ically"],["Ġsupp","ly"],["Ġad","just"],["ĠF","ind"],["u","k"],["Ġdep","loy"],["ĠM","any"],["Ġspe","ak"],["qu","est"],["D","F"],["Ġfind","ing"],["ĠJ","u"],["Ġl","ost"],["ro","te"],["Ġtr","uth"],["II","I"],["ic","ated"],["Ġenvironment","al"],["ĠCl","ass"],["Ġident","ify"],["ĠW","ork"],["Ġinflu","ence"],["a","ign"],["/","h"],["Ġgener","ated"],["Ġf","arm"],["Ġpro","p"],["Ġs","us"],["es","tern"],["om","ial"],["if","orn"],["Ġm","aster"],["b","ody"],[">","<"],["os","ition"],["Ġs","al"],["ĠM","ath"],["Ġfollow","ed"],["m","ark"],["The","n"],["Ġl","ov"],["Ġsec","ure"],["Ġsit","uation"],["ĠO","ff"],["Ġwant","ed"],["od","ay"],["mathb","b"],["ed","eral"],["ers","ion"],["Ġremain","s"],["[","!["],["Ġc","and"],["ĠEx","p"],["ĠR","E"],["ur","t"],["as","ure"],["Ġpattern","s"],["Ġdist","inct"],["Ġt","ouch"],["Ġg","iving"],["19","6"],["Ġimplement","ation"],["Ġdefin","ition"],["in","f"],["Ġsc","ale"],["ess","age"],["k","y"],["ri","e"],["Ġchang","ed"],["p","g"],["Ġe","th"],["Ġcult","ural"],["ĠL","icense"],["ES","T"],["Ġcred","it"],["L","e"],["y","ing"],["Ġcl","ients"],["}","_{"],["ĠW","est"],["Ġr","ates"],["St","ep"],["Ġf","ather"],["Ġac","qu"],["M","S"],["ĠB","ecause"],["ĠL","in"],["re","st"],["`",".ĊĊ"],[".","f"],["âĢ","ī"],["vent","ion"],["ang","es"],["iss","ions"],["Ġallow","ing"],["ap","an"],["erv","ation"],["Ġdis","cover"],["Ġcolum","n"],["Ġsym","ptoms"],[")","^"],["he","ther"],["ĠB","uild"],["ruct","ure"],["-","se"],["icro","soft"],["n","pm"],["Ġcont","ribute"],["Ġad","minist"],["g","y"],["Ġinteg","er"],["iforn","ia"],["Ġre","place"],["id","ing"],["Ġbas","is"],["Ġresearc","hers"],["Ġal","one"],["Ġ","q"],["Ġit","em"],["ain","t"],["Ġacc","ur"],["Ġb","rought"],["Ġinter","face"],["Ġeff","ort"],["o","es"],["Ġal","t"],["ar","ant"],["O","W"],["Ġ<","/"],["Ġr","ich"],["4","3"],["if","ically"],["in","ated"],["Ġre","pe"],["ĠE","m"],["d","ro"],["us","ion"],["Ġm","ole"],["ĠAl","so"],["}","("],["Ġf","ost"],["o","ad"],["Ġch","apter"],["Ġsett","ings"],[">",">"],["it","iz"],["ĠComm","un"],["l","a"],["Ġpart","y"],["cd","ot"],["ic","ks"],["ĠPro","f"],["Ġback","ground"],["Ġqu","al"],["au","ght"],["Ġcol","l"],["Ġbott","om"],["Ġs","old"],["Ġhand","le"],["ĠH","igh"],["ens","es"],["Ġnot","ice"],["^","^"],["Ġres","ource"],["ĠD","ec"],["Ġr","ound"],["Ġs","em"],["Ġst","orage"],["Ġchall","enge"],["g","ra"],["Ġf","ru"],["ro","s"],["ĠRe","ad"],["ab","s"],["âĢĻ","m"],["-","C"],["========","========"],["Ġcomp","ar"],["Ġin","j"],["Ġadv","anced"],["4","1"],["ĠTh","rough"],["val","ue"],["Ġact","ions"],["res","ents"],["ĠD","irect"],["ĠRes","earch"],["cre","te"],["Ġconst","ruction"],["Ġinc","orpor"],["ĠP","lease"],["Ġf","aith"],["Ġbusiness","es"],["Ġm","ental"],["-","of"],["Ġm","ath"],["Wh","ile"],["ĠK","ing"],["Ġse","a"],["us","es"],["Ġloc","ated"],["Ġstreng","th"],["ac","ing"],["Ġfam","ilies"],["ĠJ","ew"],["\\","\\"],["Ġpre","fer"],["Ġpart","ners"],["Ġdi","verse"],["Ġbal","ance"],["own","load"],["el","ta"],["](","/"],["G","et"],["Ġget","s"],["Ġb","ond"],["Ġp","ow"],["h","ors"],["re","et"],["et","es"],["ex","p"],["18","9"],["Ġser","ious"],["Ġstrateg","y"],["Ġtr","ig"],["-","B"],["<","EMAIL"],["Ġf","ine"],["Ġ{","\\"],["Ġgra","du"],["Ġoper","ation"],["il","os"],["for","ce"],["b","ject"],["S","ON"],["Ġarg","ument"],["H","T"],["ĠS","ervice"],["ĠH","ar"],["Ġaspect","s"],["--------","----"],["ĠH","el"],["Ġpat","ient"],["Ġdevelop","ing"],["ili","ar"],["ri","ef"],["al","pha"],["il","ing"],["i","ers"],["Ġhe","ard"],["Ġcomplete","ly"],["Ġs","av"],["op","h"],["Ġear","lier"],["Ġcon","ver"],["-","le"],["Ġde","cre"],["Ġst","age"],["Ġcent","ral"],["Ġut","il"],["ic","on"],["Ġs","ou"],["Ġ","ing"],["Ġmin","imal"],[".","D"],["Ġlearn","ed"],["as","et"],["os","en"],["ĠW","indows"],["Ġpl","aced"],["ar","ray"],["Ġrelations","hips"],["A","b"],["Ġn","odes"],["In","st"],["ĠB","ra"],["Ġplay","er"],["ĠA","I"],["Ġother","wise"],["Ġmin","imum"],["Ġwind","ow"],["Ġprocess","ing"],["8","5"],["Ġlet","ter"],["Ġestab","lished"],["ĠD","av"],["Ġprofess","ion"],["ra","py"],["g","it"],["-","up"],["Ġatt","ract"],["Ġinvol","ves"],["A","Y"],["Ġey","e"],["Ġexerc","ise"],["T","ype"],["Â","¬"],["ĠPh","ys"],["ric","ult"],["p","ot"],["T","P"],["ĠC","ur"],["Ġsepar","ate"],["clud","e"],["Ġprim","ary"],["Ġprinci","ples"],["-","D"],["S","C"],["Ġtre","nd"],["Ġd","oc"],["o","ch"],["Ġg","old"],["ĠC","reate"],["19","2"],["]","."],["Ġb","ank"],["ĠO","nce"],[".js","on"],["i","ance"],["--","-"],["-","P"],["ul","ated"],["Ġtrans","fer"],[",","\\"],["ĠO","R"],["Ġlaw","s"],["Ġc","ert"],["se","mb"],["Ġpo","or"],["Ġspec","ified"],["_","{\\"],["Ġplay","ing"],["Ġtra","de"],["ang","ed"],["Ġsur","v"],["Ġdes","cription"],["ĠCent","er"],["uc","le"],["Ġt","asks"],["Ġequ","ival"],["net","ic"],["Ġarch","itect"],["Ġpro","of"],["Ġb","reat"],["is","ms"],["h","am"],["-t","ime"],["ĠJ","ava"],["Ġ",";Ċ"],["-","\\"],["Ġrep","resents"],["Ġw","rote"],["ph","as"],["pos","es"],["Ġd","ry"],["Ġprodu","ced"],["ĠAss","oci"],["-","L"],["Ġdou","ble"],["the","ta"],["Ġfix","ed"],["m","itted"],["Ġmeet","ing"],["ot","es"],["ĠL","aw"],["Ġtre","es"],["Ġprot","ection"],["Ġautom","atically"],["ur","l"],["Ġha","ir"],["Ġbl","ue"],["f","s"],["Ġm","iddle"],["Ġra","pid"],["Ġchem","ical"],["Ġdist","ribut"],["Ġrele","vant"],["Ġexp","and"],["r","ant"],["ĠInd","ia"],["ĠM","c"],["AN","D"],["o","ke"],["Ġde","ad"],["Ġwork","ed"],["Ġl","ack"],["-","and"],["x","x"],["ĠS","y"],["ar","a"],["Ġlay","er"],["O","r"],["Ġcompre","hens"],["ig","ma"],["/","r"],["ĠC","H"],["iss","ues"],["cont","ent"],["Ġbut","ton"],["ĠDep","artment"],["Ġsy","nt"],["Ġwe","eks"],["U","M"],["Ġresp","ond"],["-","the"],["K","ey"],["Ġcon","vert"],["Ġpl","ot"],["i","very"],["le","g"],["oc","al"],["Ġpret","ty"],["l","ay"],["Ġsignificant","ly"],["Ġass","ist"],["ĠPres","ident"],["5","9"],["ĠT","O"],["N","A"],["s","ible"],["ic","a"],["Ġindepend","ent"],["el","ines"],["ĠRe","v"],["ĠCal","ifornia"],["Ġpict","ure"],["Ġp","ush"],["Ġn","or"],["Ġal","ign"],["Ġun","its"],["P","R"],["ĠF","rench"],["idd","en"],["Ġwond","er"],["Ġt","our"],["i","as"],["Ġstruct","ures"],["Ġmeas","ures"],["mm","et"],["ĠB","ar"],["on","al"],["Ġc","ivil"],["ĠC","or"],["\"",")"],["Ġmarket","ing"],["es","us"],["T","e"],["A","dd"],["Ġcar","bon"],["Ġplan","ning"],["Ġm","ut"],["Ġequ","ipment"],["\\","right"],["Ġpe","ace"],["ĠWh","y"],["air","s"],["O","F"],["b","all"],["ce","ption"],["Ġpro","te"],["app","ing"],["Ġch","ance"],["-","term"],["Ġdocument","ation"],["Ġdri","ve"],["Ġm","id"],["S","ection"],["ur","g"],["ä","¸"],["Ġsl","ight"],["ph","p"],["$$","ĊĊ"],["Ġfil","ter"],["Ġcont","em"],["Ġth","reat"],["ipp","ed"],["ĠPro","ject"],["Ġâ","ī"],["S","cript"],["Ġn","ation"],["ilit","ary"],["E","W"],["Ġlab","or"],["5","7"],["ĠK","e"],["Ġb","ud"],["od","ies"],["Ġany","one"],["Ġcaus","ed"],["_","f"],["Ġp","sych"],["Ġdec","ided"],["os","is"],["Ġdec","isions"],["Ġelect","r"],["ĠJ","apan"],["ur","ning"],["Ġselect","ed"],["id","ents"],["te","e"],["-","con"],["ol","id"],["ab","led"],["C","C"],["i","ra"],["18","0"],["Ġcontain","ing"],["Ġpers","pect"],["Ġsupport","ed"],["Ġdel","iver"],["erv","ed"],["Ġal","though"],["g","ar"],["Ġbenef","it"],["pt","y"],["Ġcap","ital"],["ĠM","ost"],["Ġrec","ently"],["ang","ing"],["/","or"],["Ġcom","ment"],["Ġnot","es"],["Ġbr","anch"],["Ġexpl","oring"],["w","ide"],["ĠSt","art"],["Ġintern","al"],["Ġc","op"],["(",")Ċ"],["Ġgo","als"],["Ġsmo","oth"],["8","6"],["n","ed"],["Ġen","able"],["Ġh","our"],["Ġro","ll"],["l","ands"],["Ġmin","im"],["ĠCh","apter"],["Ġk","ids"],["Ġadv","ance"],["il","ed"],["Ġview","s"],["Ġdiag","n"],["Ġf","at"],["Ġlangu","ages"],["R","L"],["int","s"],["ot","al"],["E","E"],["Ġreport","ed"],["re","m"],["ashing","ton"],["ĠD","et"],[".","b"],["ik","i"],["pos","ition"],["Ġph","ase"],["Ġw","oman"],["e","per"],["5","6"],["ĠE","du"],["/","S"],["Ġstru","gg"],["Ġdet","ect"],["Ġm","iles"],["Ġcon","ven"],["Ġrelig","ious"],["Ġh","ar"],["ï","¼"],["Ġ","ign"],["Ġg","ave"],["18","6"],["Ġsum","mer"],["ĠA","ng"],["Ġins","ights"],["Ġmess","ages"],["ic","ip"],["Ġide","al"],["Ġcol","ors"],["D","es"],["w","ell"],["ĠG","overn"],["ĠJ","our"],["ove","mber"],["ĠSe","pt"],["ing","u"],["Ġinterest","ed"],["Ġident","ity"],["Ġst","y"],["Ġlet","ters"],["-","v"],["ar","ter"],["ĠIntern","ational"],["Â¬","Ċ"],["Ġf","ig"],["Ġb","ab"],["ĠInd","ian"],["ĠMat","hemat"],["ĠP","at"],["ĠM","arch"],["ĠTh","us"],["st","ring"],["Ġf","lex"],["/","C"],["ĠH","ouse"],["Ġhig","hest"],["ap","ers"],["=","'"],["vers","ion"],["ĠCh","ina"],["Ġconnect","ions"],["Ġh","ref"],["ĠEng","land"],["Ġdou","b"],["Ġst","aff"],["Ġscient","ific"],["ĠEx","ample"],["ĠE","qu"],["Ġan","cient"],["ĠD","i"],["Ġorig","in"],["}",")"],["ĠIt","s"],["Ġhigh","light"],["Ġcaus","es"],["Ġsur","pr"],["b","re"],["est","ion"],["Ġcas","ino"],["l","am"],["ĠE","ven"],["Ġform","er"],["Ġimmedi","ately"],["Ġmention","ed"],["-","a"],["ce","an"],["i","pe"],["O","f"],["ĠâĢĶ","Ċ"],["Ġp","en"],["ĠThe","ir"],["Ġnumer","ous"],["Ġs","ong"],["ĠG","reat"],["ĠAust","ral"],["pt","ions"],["u","nder"],["Ġpl","ans"],["Ġoff","ering"],["Ġâ","Ī"],["omet","ry"],["Ġpre","par"],["ĠJ","une"],["y","ou"],["Ġeffic","iency"],["~","~"],["Ġ=","="],["Ġaut","hent"],["Ġad","vent"],["or","ge"],["-","cl"],["A","A"],["I","nd"],["Ġv","ary"],["Ġchang","ing"],["Ġa","st"],["Ġdiffere","nces"],["Ġre","asons"],["Ġorgan","izations"],["ĠE","very"],["lo","c"],["Ġfil","m"],["ĠW","illi"],["Ġb","ed"],["h","ol"],["Ġdom","ain"],["ĠF","orm"],["Ġph","one"],["o","ogle"],["Ġass","ign"],["Ġbrow","ser"],["ĠEurope","an"],["M","od"],["ĠL","ord"],["Ġh","it"],["Ġdepend","ing"],["Ġrecord","s"],["Ġf","em"],["pl","ot"],["fere","nt"],["Ġexper","iment"],["^","ĊĊ"],["Ġpie","ces"],["ĠBl","ack"],["Ġe","ight"],["ond","on"],["us","ing"],["Ġturn","ed"],["Ġp","ip"],["Ġd","ream"],["ut","orial"],["ce","ler"],["Ġcontinu","ed"],["Ġcorrespond","ing"],["as","p"],["ce","mber"],["Ġinstruct","ions"],["Ġm","obile"],["al","ed"],["E","C"],["ĠV","is"],["Ġbel","ong"],["u","it"],["us","iness"],["-","th"],["r","is"],["ub","y"],["Ġlar","gest"],["t","op"],["Ġfrequ","ency"],["ific","ations"],["9","6"],["Ġy","es"],["Ġstre","am"],["Ġw","ave"],["ree","k"],["Ġw","ish"],["ĠD","ay"],["18","8"],["Ġinteg","r"],["Ġwh","om"],["Ġobtain","ed"],["ĠC","ong"],["Ġex","ists"],["pro","du"],["Ġf","elt"],["Ġhapp","y"],["Ġqu","ery"],["Ġexper","im"],["Ġinit","i"],["oun","c"],["c","ap"],["Ġbir","th"],["Ġnear","ly"],["Ġf","ight"],["Ġto","ward"],["Ġf","asc"],["Ġresult","ing"],["-","e"],["ĠU","N"],["ri","er"],["Ġpract","ical"],["ten","ance"],["Ġabs","olute"],["r","an"],["alle","l"],["Ġcon","v"],["ĠM","ake"],["Ġlab","el"],["5","8"],["z","y"],["Ġd","u"],["Ġreturn","ed"],["ric","s"],["Ġent","ry"],["Ġexcell","ent"],["ol","f"],["ic","o"],["Ġsol","id"],["Ġso","ft"],["ar","p"],["ĠAr","ch"],["az","ing"],["15","0"],["Ġtra","in"],["Ġpres","ence"],["Ġpresent","ed"],["V","iew"],["Ġdo","ctor"],["az","on"],["*","ĊĊ"],["lic","ation"],["Ġpur","poses"],["(","a"],["Ġf","illed"],["ult","i"],["ol","ve"],["ĠI","P"],["ĠR","uss"],["ur","ies"],["ce","ll"],["Ġe","at"],["Ġg","ard"],["Ġim","pos"],["ĠV","ol"],["Ġse","cret"],["Ġch","urch"],["Ġt","end"],["or","ph"],["Ġe","arn"],["ĠP","ower"],["Ġcap","acity"],["ĠA","v"],["Ġcalcul","ate"],["ĠN","ote"],["Ġremov","ed"],["or","ough"],["we","b"],["Ġaltern","ative"],["he","ll"],["ari","an"],["Ġem","phas"],["Ġreg","ist"],["Ġtri","ed"],["Ġcirc","um"],["u","zz"],["L","ist"],["m","osp"],["ENT","S"],["ĠP","ark"],["ĠCon","st"],["/b","lob"],["Ġm","ission"],["Ġhe","ar"],["Ġwe","ather"],["ĠJu","ly"],["um","er"],["ð","Ł"],["Ġgu","arant"],["Ġeffect","ively"],["r","un"],["is","c"],["Ġansw","ers"],["ĠBrit","ish"],["d","ed"],["f","ord"],["b","uild"],["ot","ic"],["Ġcons","ult"],["Ġcomb","ination"],["q","l"],["um","an"],["am","ental"],["ĠI","S"],["Ġplatform","s"],["Ġc","ounter"],["Ġerr","ors"],["H","ub"],["ate","ver"],["19","4"],["S","ome"],["g","n"],["if","ies"],["ĠL","og"],["Ġcon","cent"],["ĠM","ac"],["ĠF","l"],["col","or"],["Ġw","at"],["Ġconst","ra"],["h","ot"],["is","l"],["ĠP","R"],["Ġch","osen"],["D","e"],["Ġsign","al"],["O","ut"],["Ġappear","s"],["S","ee"],["Ġcy","cle"],["I","A"],["con","ds"],["op","en"],["Ġsy","n"],["ĠApr","il"],["Ġs","ell"],["Ġv","ict"],["Ġcomm","erc"],["Ġcon","sequ"],["in","ations"],["ĠThere","fore"],["Ġcall","s"],["Ġrem","ote"],["Ġd","ro"],["ĠPro","gram"],["ĠT","ime"],["Ġh","osp"],["ĠJan","uary"],["D","E"],["ĠA","nt"],["go","ing"],["ĠInst","itute"],["n","omial"],["ines","e"],["clus","ive"],["Ġproper","ly"],["Ġfavor","ite"],["Ġhapp","ens"],["Ġreport","s"],["u","ous"],["Ġliter","ature"],["Ġhapp","en"],["Ġang","le"],["'",")"],["T","S"],["ĠJ","esus"],["Ġconf","lic"],["ant","ic"],["Ġh","ous"],["ĠD","ist"],["Ġse","lection"],["Ġrequ","ests"],["18","7"],["Ġgener","ation"],["Ġcare","er"],["Ġscient","ists"],["Ġb","all"],["Ġf","urn"],["ĠC","ode"],["Ġconcern","s"],["-","qu"],["ĠS","ur"],["Ġem","pty"],["ĠAn","y"],["Ġstand","ards"],["Ġex","ternal"],["B","e"],["ri","v"],["ft","y"],["Ġg","it"],["Ġop","in"],["Ġad","opt"],["w","itter"],["Ġfor","ces"],["Ġsit","u"],["**","Ċ"],["in","ate"],["Ġsu","fficient"],["ib","ilities"],["a","a"],["as","ion"],["Ex","ample"],["orm","al"],[".","w"],["g","u"],["et","ch"],["se","ct"],["Ġpurch","ase"],["Ġc","overed"],["Ġim","ag"],["ĠE","v"],["Ġinc","hes"],["g","ress"],["n","y"],["Ġb","ul"],["Ġdi","et"],["CT","ION"],["ĠS","ervices"],["Ġc","raft"],["Ġex","hib"],["\"",">Ċ"],["ĠP","ol"],["O","G"],["Ġhelp","ing"],["if","ier"],["Ġsh","aring"],["ĠSu","pport"],["n","es"],["an","ation"],["ress","ed"],["ot","ed"],["Ġlook","ed"],["Ġm","ere"],["4","00"],["M","E"],["oth","ing"],["l","ig"],["-","A"],["Ġd","ut"],["9","8"],["P","L"],["ĠCount","y"],["Ġdes","ired"],["Ġ","...Ċ"],["f","aces"],["Ġstart","s"],["al","ysis"],["a","ur"],["s","es"],["Ġ","##"],["Ġc","itiz"],["The","y"],["Y","our"],["ĠT","ype"],["ĠCom","put"],["f","ix"],["em","ents"],["use","um"],["Ġcamp","aign"],["ĠAd","ditionally"],["Ġst","ar"],["on","ents"],["iz","er"],["N","ot"],["Ġro","ck"],["-","on"],["Ġinvest","ment"],["ĠAug","ust"],["Ġfeel","ing"],["Ġl","oop"],["^{","-"],["Ġs","ales"],["ad","ge"],["-","ch"],["Ġac","id"],["Ġp","et"],["Ġblo","g"],["Ġkn","ew"],["p","ath"],["Ġle","aves"],["ĠMan","agement"],["Ġu","pper"],["ĠOct","ober"],["le","te"],["Ġu","lt"],["Ġb","orn"],["ĠP","ublic"],["Ġcom","plic"],["Ġpay","ment"],["Ġp","rices"],["}$","ĊĊ"],["Ġpro","ve"],["ĠChe","ck"],["b","an"],[">","</"],["il","er"],["Ġadvant","age"],["u","ps"],["Ġ$","{\\"],["ĠM","us"],["Ġcol","d"],["il","k"],["ĠA","M"],["ĠPh","il"],["Ġf","ish"],["$$","\\"],["Ġf","irm"],["em","y"],["Ġset","up"],["Ġext","ension"],["Ġtechn","ologies"],["r","um"],["Ġflo","or"],["s","m"],["ĠG","roup"],["-","F"],["h","ouse"],["Ġst","ored"],["How","ever"],["Ġfore","st"],["c","ity"],["ĠW","ashington"],["Ġform","ed"],["ĠF","ix"],["Ġs","ch"],["Ġreg","ions"],["i","j"],["Ġpass","word"],["An","other"],["ĠS","an"],["B","uild"],["Ġt","ail"],["Ġcomm","ands"],["Ġpr","ime"],["{","d"],["ĠHist","ory"],["Ġmot","ion"],["_","b"],["IT","Y"],["Ġl","inks"],["ĠD","em"],["ounc","il"],["R","ead"],["al","og"],["c","a"],["Ġs","ides"],["ĠN","ovember"],["Ġhealth","care"],["ĠF","urther"],["Ġgl","ass"],["P","lease"],["ĠL","ife"],["ĠS","ec"],["Ġso","il"],["if","orm"],["Ġint","ellig"],["r","ont"],["ra","ck"],["Ġprogram","ming"],["Ġclos","ed"],["ĠEx","per"],["Ġhor","iz"],["Ġext","ract"],["Ġcl","in"],["Ġsp","ot"],["Ġshow","ing"],[".","l"],["Ġrepresent","ation"],[".","x"],["Ġt","rou"],["angu","age"],["+","\\"],["'","ĊĊ"],["a","per"],["Ġm","ist"],["Ġexperi","enced"],["Ġsm","art"],["/","en"],["al","ign"],["ĠG","it"],["ĠT","H"],["Ġv","ir"],["b","ed"],[".","n"],["Ġpack","ages"],["6","7"],["se","ction"],["Ġvirt","ual"],["5","2"],["ĠM","ag"],["Ġmor","ning"],["ĠF","ree"],["ur","ity"],["Ġst","ock"],["Wh","y"],["ro","y"],["S","P"],["m","as"],["ĠAl","though"],["un","k"],[")",")Ċ"],["velo","per"],["19","5"],[".","C"],["ĠM","iss"],["or","row"],["s","l"],["if","ferent"],["Ġsom","ew"],["Ġfam","iliar"],["Ġn","ice"],["ol","ved"],["ĠL","ondon"],["Ġ","er"],["AG","E"],["Â","«"],["Ġpre","m"],["Ġrel","ative"],["Ġim","pl"],["ĠCan","ada"],["P","ost"],["rom","e"],["Ġdeterm","ined"],["Ġra","ce"],["Ġin","come"],["Ġcommerc","ial"],["ĠS","ociety"],["Ġp","ray"],["Ġch","ain"],["Ġcl","oud"],["Ġprom","pt"],["Ġd","anger"],["out","hern"],["Ġcirc","le"],["Ġn","ove"],["Ġdisc","overed"],["a","id"],["Ġdepend","s"],["Ġpa","id"],["ĠD","el"],["p","es"],["Ġm","ilitary"],["ind","ing"],["ĠL","ab"],["1","20"],["ĠL","ist"],["9","7"],["ra","el"],["AC","E"],["Ġfra","ction"],["Ġdo","or"],["ĠSept","ember"],["Ġaut","hors"],["ÂłÂł","ÂłÂł"],["Ġinst","r"],["ĠPl","an"],["wo","od"],["ĠDevelop","ment"],["Ġr","ise"],["Ġgra","nd"],["m","u"],["](","../"],["ĠCol","lege"],["Ġpl","us"],["Ġm","o"],["Ġspl","it"],["x","i"],["Ġw","all"],["Ġd","ial"],["ĠF","in"],["Ġs","on"],["ĠĠĠĠĠĠĠĠ","ĠĠ"],["Ġsc","ore"],["Ġco","e"],["Ġdoc","uments"],["Ġs","amples"],["reed","om"],["Ġtop","ic"],["Ġdel","ivery"],["Ġs","in"],["Ġspec","ifically"],["Ġredu","ced"],["M","an"],["10","1"],["os","es"],["ash","ion"],["Ġsp","orts"],["Ġconcept","s"],["st","ate"],["ĠDe","cember"],["Ġcho","ices"],["Ġt","ag"],["Ġra","re"],["Ġcare","fully"],["Ġold","er"],["Ġrun","s"],["Ġgr","ant"],["ĠDes","ign"],["Ġt","al"],["os","ite"],["ura","cy"],["om","y"],["Ġheav","y"],["ĠI","d"],["Ġkeep","ing"],["Ġve","get"],["Ġpro","s"],["âĸ","ł"],["Ġp","ure"],["Ġdiscuss","ion"],["it","oring"],["Ġon","to"],["om","as"],["iven","ess"],["ock","et"],["ru","pt"],["-","sh"],["ĠEng","ine"],["O","K"],["ra","b"],["Ġinstall","ation"],["Ġhum","ans"],["P","H"],["ĠSt","r"],["o","per"],["ual","ity"],["Ġh","uge"],["ra","in"],["Ġgr","id"],["Ġbeaut","y"],["Ġ",":ĊĊ"],["Ġdr","ink"],["U","p"],["Ġcour","t"],["pect","ed"],["h","ow"],["Ġr","ank"],["Ġc","os"],["tr","ans"],["Ġscen","ari"],["Ġa","part"],["am","a"],["V","I"],["ĠA","tt"],["Ġsub","t"],["hes","is"],["lab","el"],[".sh","ields"],["U","B"],["l","ambda"],["ibr","aries"],["Ġv","oice"],["Ġdeg","rees"],["ok","en"],["ĠP","ort"],["5","1"],["W","S"],["-","T"],["ĠGerm","an"],["Ġteac","hers"],["amet","er"],["Ġte","le"],["Ġrat","io"],["co","very"],["Ġke","pt"],["Ġtop","ics"],["aw","s"],["z","ure"],["Ġb","on"],["Ġat","mosp"],["Ġens","ures"],["Ġbe","g"],["Ġcre","ation"],["ic","it"],["Ġrepresent","ed"],["fere","d"],["D","o"],["ĠE","lect"],["-d","ay"],["Ġpolic","ies"],["Ġth","r"],["Ġarg","uments"],["ol","s"],["av","as"],["am","in"],["Ġus","age"],["Ġmy","self"],["t","ings"],["ĠCh","inese"],["Ġthan","ks"],["Ġsay","ing"],["Ġfram","ework"],["Ġrele","ased"],["-y","ear"],["g","on"],["Ġwe","ak"],["ic","ed"],["Ġprep","ared"],["p","ass"],["ĠR","iver"],["Ġf","aster"],["O","nce"],["Ġs","ession"],["ĠM","ex"],["ĠIn","f"],["Ġtechn","ical"],["Ġaccur","ate"],["Ġcomprehens","ive"],["Ġun","ivers"],["ĠA","R"],["Ġph","ilos"],["/","k"],["im","ens"],["ĠLear","ning"],["Ġn","ucle"],["Ġtra","d"],["Ġfore","ign"],["Ġsupport","s"],["Ġocc","up"],["Ġequival","ent"],["ĠJour","nal"],["Ġn","orth"],["oc","r"],["Ġit","er"],["js","on"],["G","ener"],["ĠS","k"],["ĠM","ethod"],["Ġsol","ar"],["d","en"],["5","3"],["ĠâĢ","¦"],["Ġf","ear"],["Ġc","ry"],["Ġan","imal"],["ĠD","uring"],["v","ille"],["ord","s"],["ĠPl","ay"],["Ġb","right"],["Ġinteg","ration"],["Ġris","ks"],["Ġa","f"],["Ġconf","igure"],["the","n"],["Ġd","rop"],["ag","o"],["'","'"],["Ġun","less"],["in","os"],[")",":ĊĊ"],["Ġn","ative"],["ĠB","en"],["com","pl"],["AR","T"],[")","/"],["Ġqu","e"],["ĠComp","any"],["Ġcand","id"],["tr","ue"],["S","et"],["Ġsp","ent"],["Ġcontain","er"],["it","c"],["Ġl","ic"],["Ġsw","itch"],["Ġrel","ation"],["Â","»"],["ĠW","hether"],["ord","ers"],["Ġemploy","ees"],["Ġintrodu","ced"],["Ġinterpre","t"],["Ġins","urance"],["Ġcontinu","ous"],["Ġrecomm","ended"],["Ġte","aching"],["ĠM","ich"],["l","is"],["Ġgu","ess"],["it","ors"],["un","ately"],["ph","i"],["math","cal"],["Ġcontem","porary"],["A","ut"],["Ġac","ad"],["Ġpoly","nomial"],[".j","pg"],["Ġded","icated"],["Ġmaintain","ing"],["ĠG","reen"],["ĠO","h"],["Ġvis","ion"],["Ġintern","et"],["Ġprom","ote"],["ĠT","wo"],["pro","ject"],["Ġde","eper"],["Ġobserv","ed"],["Ġmiss","ing"],["in","fty"],["ind","er"],["ĠSt","ep"],["V","al"],["Com","p"],["v","ision"],["Ġa","p"],["Ġte","ach"],["Ġplug","in"],["Ġprofession","als"],["l","ife"],["wh","ile"],["Ġconsider","ing"],["ĠH","am"],["lo","ok"],["ĠF","ound"],["Ġfram","e"],["Ġsurround","ing"],["H","mm"],["S","p"],["ru","ary"],["ĠE","ast"],[".","h"],["Ġpos","itions"],["ĠSt","and"],["5","4"],["ir","ation"],["Ġder","iv"],["Ġwork","ers"],["18","5"],["Ġb","inary"],["Y","es"],["Ġimpro","ved"],["avas","cript"],["Ġ","ice"],["it","utions"],["Ġteac","her"],["ĠAssoci","ation"],["ĠU","RL"],["12","3"],["Ġoccur","s"],["ĠS","um"],["ĠM","et"],["all","ed"],["Ġsh","ip"],["ild","ren"],["Ġown","ers"],["Ġhy","dro"],["H","el"],["am","ma"],["Ġint","ended"],["Ġvers","ions"],["Ġfund","amental"],["P","re"],["c","m"],["ĠS","E"],["ĠB","as"],["yn","c"],["L","L"],["Ġman","ner"],["P","A"],["Ġh","op"],["Ġfasc","inating"],["Ġv","ital"],["part","ial"],["ĠC","ustom"],["oy","al"],["m","es"],["h","ab"],["Ġinvol","ve"],["om","b"],["Ġmain","tenance"],["Ġim","agine"],["Ġcom","ments"],["Ġapp","oint"],["rast","ructure"],["Ġare","n"],["Ġmov","ed"],["st","art"],["Ġdynam","ic"],["pp","ose"],["Ġclear","ly"],["Ġcon","clusion"],["OU","R"],["Ġtru","ly"],["Ġprec","ise"],["ol","ving"],["IN","T"],["g","a"],["Ġs","ac"],["Ġof","fered"],["ci","pl"],["Ġb","atter"],["Ġd","oll"],["Ġl","ived"],["Ġadv","ice"],["A","cc"],["ĠJ","ames"],["c","ertain"],["k","er"],["h","is"],["Ġass","ume"],["\"",")Ċ"],["Ġn","ull"],["Ġcou","ple"],["'",",Ċ"],["C","he"],["Ġme","ant"],["ĠW","ater"],["l","ink"],["Ġc","ards"],["yp","es"],["d","b"],["Ġf","uel"],["ĠUnder","standing"],["Ġinter","val"],["Ġinc","red"],["S","c"],["ĠĠĠĠĠĠĠĠ","ĠĠĠĠĠ"],["ĠIn","formation"],["Ġupd","ated"],["Ġfin","ally"],["Ġ","...."],["Ġbehav","i"],["d","frac"],["Ġsee","king"],["Ġfrequ","ently"],["Ġtechn","ique"],["ĠIs","rael"],["Ġpropos","ed"],["B","R"],["Ġveh","icle"],["aut","hor"],["ĠM","ass"],["Ġf","ol"],["oo","per"],["G","E"],["o","pping"],["Ġincre","ases"],["Ġs","outh"],["âĪ","Ĵ"],["D","ef"],["Ġev","olution"],["Ġexper","ts"],["Ġsign","s"],["Ġdetail","ed"],["n","am"],["Ġposs","ess"],["Ġpl","ays"],["Ġmag","n"],["ce","l"],["ag","ue"],["19","3"],["Ġcreat","ive"],["ĠA","D"],["Ġplan","e"],["Ġrest","rict"],["enc","ing"],["Ġaud","ience"],["k","a"],["Ġcreat","es"],["Ġs","oci"],["ĠF","OR"],["Ġjo","in"],["C","O"],["Ġopt","imal"],["het","ic"],["ĠSh","ow"],["ĠMod","el"],["ĠK","ey"],["rel","ated"],["Ġbud","get"],["ĠS","am"],["ck","now"],["Ġinter","act"],["the","re"],["P","r"],["g","l"],["Ġf","ab"],["Ġdep","th"],["Ġal","gebra"],["Ġv","s"],["ĠĠĠĠĠĠĠĠ","ĠĠĠĠ"],["ĠT","oday"],["Ġhelp","ful"],["Ġsustain","able"],["l","n"],["Ġl","ik"],["Ġsu","itable"],["ĠA","ir"],["ĠB","el"],["AT","H"],["Ġeduc","ational"],["M","ore"],["Ġf","ill"],["ĠM","ain"],["Ġag","re"],["ĠCong","ress"],["m","ap"],["Ġc","ities"],["con","nect"],[".","net"],["I","ST"],["ĠPro","v"],["Ġb","and"],["oun","ced"],["Ġremain","ing"],["Ġprevious","ly"],["Ġj","oint"],["Ġproced","ure"],["Ġex","change"],["Ġing","red"],["ĠM","or"],["ĠCon","f"],[")","$$"],["Ġalgorith","ms"],["as","y"],["Ġwas","te"],["Ġnet","works"],["Ġres","istance"],["()","`"],["h","ave"],["Ġre","ality"],["Ġoper","ator"],["om","ic"],["Ġlog","ic"],["ĠEdu","cation"],["ĠIn","c"],["Ġperform","ed"],["et","her"],["Ġthous","ands"],["Ġb","rief"],["Ġv","ibr"],["Ġconsist","ent"],["b","b"],["k","i"],["is","ation"],["ĠL","eg"],["f","ield"],["Ġplay","ed"],["ak","ers"],["Ġad","j"],["p","o"],["Ġdat","aset"],["8","7"],["Ġredu","cing"],["6","9"],["opy","right"],["Ġdescrib","e"],["at","in"],["Ġbe","coming"],["ri","ve"],["Ġfunction","ality"],["augh","ter"],["Ġw","is"],["en","v"],["_","name"],["omet","imes"],["ĠJ","ul"],["ĠH","ome"],["Ġfood","s"],["Ġthought","s"],["Ġg","ather"],["ĠJ","o"],["Ġcol","lege"],["S","im"],["Ġam","azing"],["()",";Ċ"],["Ġoper","ating"],["Ġse","gment"],["AL","L"],["Ġcomple","ted"],["Ġswe","et"],["Ġob","vious"],["Ġcontin","ues"],["Ġaff","ord"],["Ġe","gg"],["Ġinv","ent"],["ast","s"],["Tr","ans"],["ric","k"],["Ġv","ill"],["Ġsupp","l"],["}","="],["ic","ious"],["ĠH","y"],["Ġhold","s"],["Ġ","velo"],["St","ring"],["Ġslight","ly"],["Ġfin","ite"],["ĠDav","id"],["ĠIn","s"],["ĠAfric","a"],["m","et"],["ren","cy"],["Ġse","vere"],["Ġsee","k"],["Ġdi","vers"],["Ġpar","allel"],["/","M"],["/","ĊĊ"],["urn","s"],["Ġart","icles"],["Ġmulti","pl"],["Ġar","m"],["Ġfl","ag"],["m","ax"],["Ġdivid","ed"],["Ġchalleng","ing"],["Ġl","iqu"],["ĠU","K"],["Ġwant","s"],["r","ations"],["ĠM","ary"],["ve","c"],["ĠP","ress"],["ĠP","al"],["Ġsp","ring"],["Ġcol","on"],["Ġread","ers"],["Ġfeed","back"],["<","br"],["Ġp","hen"],["P","ar"],["S","ub"],["ĠE","r"],["Ġc","ir"],["Ġm","ig"],["ort","hern"],["Ġfact","s"],["Ġt","ips"],["cre","ate"],["Ġind","eed"],["Ġcomb","ined"],["ĠM","em"],["Ġsp","end"],["Ġhelp","ed"],["Ġann","ual"],["z","ing"],["Ġn","arr"],["Ġman","if"],["Ġseem","ed"],["I","X"],["Ġth","ick"],["âĢ","ĺ"],["ï¿½","ï¿½"],["Ġappro","aches"],["Ġcertain","ly"],["Ġp","ark"],["Ġrem","ark"],["Ġquant","um"],["ĠPe","ople"],["AR","Y"],["Ġre","ached"],["Ġfig","ures"],["Ġpol","l"],["Ġd","ensity"],["Ġmet","al"],["D","U"],["f","it"],["Ġac","celer"],["Ġinterest","s"],["Ġcam","era"],["f","unction"],["ĠF","ore"],["ĠB","ook"],["AT","E"],["st","ances"],["Ġag","ree"],["P","er"],["Ġb","its"],["ĠProf","ess"],["re","c"],["Ġw","it"],["Ġto","ken"],["E","d"],["S","ince"],["in","ity"],["ent","h"],["ĠUs","age"],["ens","or"],[",","y"],["C","L"],["Ġdo","i"],["viron","ments"],["Ġlead","s"],["Ġdru","g"],["L","ast"],["sp","an"],["Ġm","ac"],["Ġpro","port"],["ĠA","lex"],["p","ublic"],["v","als"],["ograph","ic"],["Ġag","ricult"],["Ġconf","idence"],["Ġmach","ines"],["Ġknow","s"],["and","er"],["co","hol"],["roll","er"],["Ġcur","ve"],["i","ant"],["g","ments"],["F","ile"],["ĠC","OM"],["Ġcor","por"],["Ġfam","ous"],["b","al"],["Ġc","m"],["Ġf","if"],["1","10"],["Ġse","ven"],["ĠInst","ead"],["Ġ","iron"],["Ġel","im"],["Ġest","imate"],["Ġmanufact","ure"],["ĠC","am"],["se","arch"],["ĠFr","ance"],["Ġfunction","al"],["Ġtem","plate"],["Ġf","ederal"],["art","s"],["Ġinteg","ral"],["ĠDes","cription"],["w","ater"],["Ġb","odies"],["ĠP","o"],["Ġsur","vey"],["Ġcor","ner"],["Ġhy","per"],["Ġplan","et"],["Ġw","a"],["port","s"],["Ġwh","atever"],["ing","er"],["ple","te"],["Ġsur","g"],["Ġant","i"],["est","ic"],["av","en"],["T","ime"],["Ġv","ast"],["od","s"],["Ġacc","uracy"],["Ġno","ise"],["-","R"],["Ġa","head"],["ĠG","l"],["Ġp","al"],["an","ish"],["Ġwor","ry"],["Ġdig","its"],["Ġst","uff"],["um","es"],["Ġextreme","ly"],["M","e"],["Ġs","ounds"],["clud","ing"],["Ġco","ast"],["id","a"],["Ġs","and"],["Ġinter","view"],["Ġl","ib"],["ĠV","ir"],["_","j"],["Ġabs","or"],["Ġaff","ected"],["ĠE","mp"],["18","4"],["ĠT","er"],["Ġcont","rast"],["ĠWilli","am"],["Ġse","conds"],["ĠS","al"],["ĠD","iv"],["Ġcons","ists"],["it","z"],["h","o"],["Ġ","__"],["ĠL","ike"],["ak","s"],["Ġshe","ll"],["D","B"],["ĠN","ame"],["Ġpass","ion"],["Ġst","rict"],["Ġexp","os"],["Ġtrans","ition"],["Ġle","aving"],["Ġart","ists"],["Ġwin","ter"],["/d","ocs"],["/","issues"],["Ġref","ers"],["ĠCons","ider"],["Ġth","orough"],["Ġ$","{"],["Ġprovid","er"],["Ġexpress","ed"],["Ġhab","it"],["a","el"],["ĠS","ocial"],["Ġshow","ed"],["def","ault"],["-f","ree"],["ans","ion"],["Ġfac","ilit"],["ĠIntern","et"],["A","V"],["ĠC","lick"],["ĠA","p"],["ul","ner"],["Ġdepend","encies"],["ĠI","ll"],["Ġhom","es"],["ath","y"],["Ġcollab","or"],["s","cript"],["ĠL","ibrary"],["E","X"],["Ġinnov","ative"],["Ġlands","cape"],["_","k"],["ĠS","erver"],["ĠY","es"],["D","S"],["on","ic"],["et","ing"],["ĠWh","ite"],["Ġth","read"],["Ġmathemat","ical"],["`",":"],["Ġlov","ed"],["ç","ļ"],["Ġdefin","ite"],["Ġc","ash"],["ĠRe","view"],["Ġa","id"],["Ġcomfort","able"],["Ġchann","el"],["Ġmov","es"],["8","00"],["ĠUn","ion"],["Ġcar","ried"],["Ġp","ython"],["ĠSim","ilar"],["ĠMore","over"],["Ġtri","p"],["ven","ue"],["ĠBo","ard"],["çļ","Ħ"],["Ġre","nder"],["Ġwas","n"],["Ġeng","aging"],["m","al"],["ff","ect"],["ĠCal","cul"],["l","ines"],["ĠS","en"],["ĠM","ount"],["Ġri","ver"],["v","i"],["Ġfl","at"],["ic","ian"],["Ġex","cess"],["t","ical"],["st","ream"],["ĠB","oth"],["ĠV","iew"],["ĠP","ract"],["Ġserv","ed"],["Ġele","v"],["ĠSt","reet"],["ĠTh","anks"],["Ġsc","ene"],["om","in"],["_","C"],["Ġaccount","s"],["erson","al"],["Ġimplement","ed"],["Ġevent","ually"],["Ġst","ation"],["du","le"],["Ġim","plic"],["ĠS","un"],["ĠB","et"],["ing","ly"],["ic","ians"],["r","ary"],["Ġredu","ction"],["Ġrel","ax"],["Ġteam","s"],["am","ily"],["T","R"],["Ġed","itor"],["l","ib"],["ram","e"],["co","pe"],["C","an"],["ra","ction"],["11","1"],["'","S"],[")",";ĊĊ"],["Ġc","ast"],["Ġinf","inite"],["8","9"],[".t","xt"],["Ġappreci","ate"],["ĠPa","ul"],["Ġass","istance"],["Ġrespect","ively"],["Ġpair","s"],["Ġapprox","imately"],["-","H"],["ribut","es"],["Ġre","action"],["Ġsub","sequ"],["Ġdec","ide"],["Ġpro","ceed"],["c","ount"],["{","x"],["ĠN","umber"],["Ġun","f"],["P","C"],["ĠB","r"],["op","hy"],["omet","ric"],["U","se"],["Ġ$","("],["ber","t"],["Ġsou","l"],["J","o"],["Ġtra","ffic"],["is","p"],["ĠB","ay"],["6","3"],["Ġthe","rm"],["ĠInt","eg"],["B","efore"],["am","pl"],["Ġtri","angle"],["ĠB","ack"],["ĠD","E"],["Ġrep","o"],["ble","m"],["Ġeng","age"],["Ġparticip","ants"],["ĠS","l"],["ĠO","ld"],["est","ed"],["-l","ike"],["ĠB","ro"],["Ġexist","ence"],["ĠAcc","ording"],["in","it"],["Ġd","ive"],["Ġrel","iable"],["Ġinteg","ers"],["Ġstr","ings"],["O","ST"],["Ġentire","ly"],["Ġrelig","ion"],["ĠB","usiness"],["Ġn","one"],["ĠComm","it"],["ONT","ENTS"],["g","r"],["ĠOn","line"],["ph","one"],["ron","ic"],["err","or"],["Ġbo","y"],["il","ter"],["!","!"],["Ġleg","isl"],["w","rit"],["ĠSt","e"],["Ġnavig","ate"],["Ġsitu","ations"],["Ġt","ick"],["Ġd","ied"],["Ġcomplex","ity"],["ĠFeb","ruary"],["ĠO","per"],["Ġopen","ing"],["Ġf","reedom"],["Ġlist","ed"],["Ġ","Ï"],["we","ight"],["/","A"],["Ġwe","ar"],["ĠAfric","an"],["[","i"],["IT","H"],["ĠU","ser"],["ĠUn","it"],["Ġpict","ures"],["Ġeconom","y"],["ĠT","op"],["iver","se"],["ĠOff","ice"],["b","and"],["Ġdes","pite"],["er","ia"],["Ġun","s"],["ĠOr","gan"],["Ġen","vironments"],["ĠCour","t"],["ĠT","em"],["ĠP","M"],["](","./"],["O","ver"],["N","et"],["Ġrespons","ibility"],["Ġcollab","oration"],["Ġre","act"],["ĠG","en"],["Ġdri","ving"],["ach","ine"],["Ġres","olution"],["Ġsy","mmet"],["con","f"],["P","E"],["Ġw","elcome"],["P","T"],["Ġcare","ful"],["Ġimpos","sible"],["riend","ly"],["Ġcalcul","ated"],["ĠInt","roduction"],["Ġad","vert"],["Ġst","ack"],["Ġlim","its"],["Ġfail","ure"],["E","ach"],["Ġprot","ocol"],["c","ip"],["Ġcharacter","istics"],["Ġprote","in"],["Ġadd","s"],["Ġinform","ed"],["Ġengine","ering"],["Ġexplain","ed"],[".","get"],["Ġf","ashion"],["et","ies"],["Ġcorrect","ly"],["/","L"],["Ġcitiz","ens"],["Ġvelo","city"],["Ġ","}}"],["Ġcommit","ment"],["ĠO","N"],["Ġinst","ant"],["iss","ue"],["ĠC","ouncil"],["Ġdesign","s"],["ĠH","ave"],["Ġsh","ipping"],["ide","os"],["Ġthe","rapy"],["Ġfor","get"],["Ġad","ults"],["Ġcoordin","ates"],["6","2"],["c","ular"],["j","o"],["Ġv","acc"],["Ġcl","uster"],["Ġam","b"],["Ġtalk","ing"],["ri","age"],["ĠG","ood"],["h","us"],["Ġro","les"],["ip","edia"],["âĢĻ","d"],["Ġcommon","ly"],["Ġm","aps"],["ĠP","H"],["u","i"],["Ġrel","atively"],["ĠPro","t"],["inst","all"],["ocument","ation"],["Ġtheore","m"],["ch","ar"],["Ġfocus","ed"],["R","ec"],["cent","er"],["Ġ","icon"],["un","ctions"],["Ġpart","ies"],["Ġclose","ly"],["Ġbill","ion"],["ĠC","reat"],["*","Ċ"],["Ġ",".Ċ"],["ack","age"],["ident","ial"],["U","D"],["Ġinvol","ving"],["mat","rix"],["v","an"],["Ġl","icense"],["Ġg","lo"],["ik","ipedia"],["ret","urn"],["Ġfor","th"],["ĠA","T"],["Ġinf","rastructure"],["Ġform","al"],["B","C"],["Ġgood","s"],["-","pl"],["Ġout","comes"],["il","on"],["Ġfor","t"],["bs","p"],["ĠAdd","ed"],["ĠP","ub"],["ĠLin","ux"],["Ġatt","end"],["Ġla","unch"],["6","00"],["T","est"],["ĠS","S"],["Ġac","compl"],["ĠSe","cond"],["Ġappear","ance"],["Ġd","ie"],["r","ition"],["ĠA","ccess"],["z","a"],["or","ter"],["Ġjour","nal"],["{","%"],["Ġâ","Ķ"],["cl","aim"],["7","9"],["Ġspec","ify"],["crib","e"],["r","d"],["Ġspirit","ual"],["Ġcon","sole"],["ens","ed"],["ĠEx","pl"],["Ġneighb","or"],["O","pen"],["n","ode"],["Ġd","ram"],["ĠT","V"],["ĠEn","vironment"],["ĠF","ace"],["lay","out"],["Ġh","idden"],["Ġtest","ed"],["b","in"],["-","G"],["Ġth","row"],["am","l"],["og","ether"],["s","uch"],["un","ning"],["Ġless","ons"],["ĠSe","lect"],["ĠGovern","ment"],["Ġm","ort"],["Ġcolum","ns"],["Ġbab","y"],["ĠM","al"],["Ġcateg","ory"],["R","em"],["Ġworld","wide"],["Ġl","ots"],["/","D"],["on","ym"],["c","ious"],["Ġco","verage"],["-","line"],["i","ability"],["Ġun","iform"],["u","pp"],["in","ner"],["Ġord","ers"],["re","y"],["ed","u"],["OR","K"],["Ġl","ies"],["ur","d"],["ĠFurther","more"],["-le","vel"],["in","ent"],["Ġe","ating"],["if","ts"],["Ġro","ots"],["F","orm"],["Ġsuccess","fully"],["Ġo","x"],["Ġc","ro"],["Ġsh","ad"],["Ġk","ing"],["Ġcho","osing"],["ist","ant"],["re","nce"],["Ġblo","cks"],["Ġprof","ile"],["Ġp","p"],["ic","ations"],["oc","ation"],["Ġcomp","are"],["ont","al"],["Ġexc","iting"],["S","he"],["Ġgir","l"],["Ġident","ified"],["Z","bl"],["Ġgreat","est"],["Ġhapp","ened"],["$","Ċ"],["Ġc","atch"],["Ġprint","ed"],["ĠGe","orge"],["st","e"],["Ġour","selves"],["Ġadv","oc"],["Ġtrans","formation"],["it","ure"],["Ġth","y"],["Ġemot","ional"],["ent","le"],["ri","an"],["****","****"],["Ġc","rypt"],["st","ood"],["ĠC","ath"],["ĠN","OT"],["Ġr","ing"],["ĠJ","ack"],["ĠB","i"],["Ġw","ife"],["Ġsu","gar"],["Ġpers","ons"],["ass","ets"],["Ġcomp","at"],["Ġon","going"],["um","n"],["Ġl","atter"],["ĠT","im"],["oc","ks"],["Ġpart","ner"],["el","ess"],["RE","F"],["ĠR","ef"],[")","}"],["t","ure"],["7","2"],["ĠB","ank"],["Ġtre","ated"],["Ġfund","s"],["Ġfru","it"],["is","k"],["g","i"],["Ġy","ield"],["ĠS","ign"],["semb","ly"],["el","lect"],["ĠHT","ML"],["U","E"],["dd","en"],["h","and"],["Ġst","ands"],["ill","a"],["_","id"],["ĠG","raph"],["ĠRe","qu"],["Ġra","w"],["Ġnove","l"],["Ġmark","ed"],["Ġmat","ters"],["Ġrow","s"],["ĠSt","at"],["________","________"],["Ġdis","app"],["Ġsect","or"],["-qu","ality"],["o","very"],["Ġso","le"],["Ġjo","bs"],["g","reg"],["Ġke","ys"],[".",")ĊĊ"],["ĠAmeric","ans"],["Ġmed","ium"],["-","ex"],["\\","left"],["Ġâī","¤"],["Ġpath","s"],["Ġa","cknow"],["Ġcap","able"],["ĠMay","be"],["Ġexpos","ure"],["ĠEx","t"],["Ġkind","s"],["amb","ling"],["in","i"],["Ġturn","s"],["Ġst","atic"],["Ġsymbol","s"],["Ġcircum","stances"],["word","s"],["Ġpub","lish"],["B","Y"],["ĠM","rs"],["anc","is"],["k","ins"],["qu","are"],["Ġrec","ip"],["imens","ional"],["u","y"],["ĠAn","n"],["Ġtrend","s"],["Ġj","oy"],["Ġmen","u"],["Ġrout","e"],["Ġatmosp","here"],["-","comp"],["ĠL","ong"],["Ġauthor","ity"],["s","im"],["Ġpotential","ly"],["Ġindic","ate"],["u","a"],["Ġprinci","ple"],["'",")Ċ"],["ut","ive"],["ĠH","en"],["b","ase"],["Ġinst","itutions"],["Ġbuild","ings"],["Ġtri","al"],["Ġin","ner"],["Ġ(","["],["Ġdoub","t"],["Ġen","ables"],["Ġbo","ost"],["Ġad","m"],["IL","L"],["Ġclaim","s"],["i","ences"],["ĠR","ich"],["Ġpre","d"],["ĠRem","ember"],["Ġre","ct"],["Ġm","outh"],["ail","ed"],["M","A"],["Ġo","dd"],["Ġf","old"],["Ġ","?ĊĊ"],["ific","ial"],["Ġsubject","s"],["ĠL","ook"],["Ġdes","ire"],["l","ong"],["Ġs","lo"],["Ġin","ject"],["Ġbro","ther"],["ith","m"],["ĠL","ine"],["Ġmanag","ed"],["Ġguid","elines"],["Ġre","new"],["Ġencoura","ge"],["c","s"],["out","s"],["ff","ee"],["Ġg","one"],["Ġrefer","red"],["b","eta"],[".","âĢĶ"],["v","ity"],["ĠS","uch"],["ĠN","ov"],["Ġmin","or"],["a","fter"],["our","se"],["n","el"],["Ġst","ars"],["ĠP","en"],["C","D"],["ĠPro","per"],["Ġaware","ness"],["p","et"],["ect","or"],["18","3"],["Ġinst","ances"],["Ġsty","les"],["Ġdri","ver"],["ĠW","ord"],["Ġthem","e"],["Ġupd","ates"],["Ġc","e"],["ra","ys"],["Ġconsum","ption"],["h","as"],["Ġv","it"],[".","log"],["c","her"],["um","s"],["Ġend","s"],["Ġmag","netic"],["Ġg","ar"],["ig","ital"],["et","te"],["Ġyou","th"],["Ġpass","ing"],["Ġmajor","ity"],["Ġg","ender"],["Ġknow","ing"],["-s","c"],["ul","f"],["ĠM","ax"],["Ġins","pect"],["Ġguid","ance"],["t","age"],["ed","ge"],["ĠP","oint"],["Ġsupport","ing"],["Ġphen","omen"],["_","N"],["Ġaccess","ible"],["Ġphys","ics"],["Ġbro","ken"],["w","ill"],["an","o"],["Ġpartic","les"],["Ġlay","ers"],["Ġsu","dden"],["Ġent","ertain"],["}}","\\"],["Ġcut","ting"],["Ġl","ad"],["ĠS","ing"],["Ġch","ief"],["Ġapp","s"],["ĠÂ","£"],["Ġar","bit"],["Ġsubst","ant"],["ĠH","ol"],["ost","on"],["Ġsub","mit"],["Ġ<","-"],["ool","s"],["Ġopen","ed"],["ĠCont","in"],["as","er"],["Ġh","un"],["ĠT","ex"],["ber","g"],["Ġass","ets"],["25","0"],["Ġsee","ing"],["b","or"],["B","S"],["ER","T"],["Ġmeas","ured"],["w","hen"],["ĠP","C"],["ĠR","ober"],["ĠAustral","ia"],["?","?"],["s","ince"],["Ġindust","rial"],["Ġs","now"],["Ġperiod","s"],["Ġmot","iv"],["C","ode"],["k","in"],["Ġb","acter"],["Ġjust","ice"],["Ġoper","ators"],["6","1"],["ĠSt","atus"],["Ġwe","alth"],["ug","in"],["Ġmon","itoring"],["R","ep"],["ed","er"],["ĠC","ap"],["ir","ty"],["Ġsc","hed"],["Ġask","ing"],["Ġarchitect","ure"],["Ġhy","pot"],["Ġst","ick"],["Ġl","ists"],["erv","ing"],["Ġcol","le"],["ii","i"],["b","les"],["ĠO","S"],["Ġserv","es"],["Ġport","ion"],["Ġown","er"],["Ġl","ibraries"],["ĠN","on"],["Ġext","ended"],["Ġbr","ings"],["Ġinst","ruction"],["Im","agine"],["G","B"],["Ġt","ables"],["Ġst","able"],["Ġsubs","et"],["or","ical"],["Ġqu","ad"],["Ġmax","im"],["ic","ial"],["om","a"],["ĠEn","ergy"],["ĠG","old"],["Ġsignific","ance"],["ĠSu","per"],["Ġacad","emic"],["In","ter"],["Ġgener","ations"],["ĠDe","v"],["Ġexpress","ions"],["Ġs","ale"],["Ġreg","ister"],["Ġinf","o"],["Ġfeel","ings"],["Ġre","nt"],["ad","o"],["ĠComm","ission"],["Ġmot","or"],["Ġt","it"],["Ġre","put"],["Ġdig","it"],["n","bsp"],["ed","ing"],["10","2"],["Ġterm","inal"],["Ġaccept","ed"],["^","{\\"],["Ġreg","ulations"],["ĠG","reek"],["ĠV","ari"],["Ġmult","ip"],["fort","unately"],["`",".Ċ"],["em","o"],["Ġinnov","ation"],["Ġm","el"],["Ġcap","abilities"],["Ġdistribut","ed"],["U","ser"],["Ġhand","ling"],["Ġspe","ech"],["Ġdise","ases"],["Ġdraw","ing"],["Ġexpert","ise"],["ĠP","age"],["'",":"],["Ġra","ised"],["ĠSystem","s"],["Ġgard","en"],["W","here"],["Ġ}",",Ċ"],["Ġsugg","ests"],["o","om"],["ĠL","ou"],["Ġlist","en"],["Ġloc","ations"],["ĠH","all"],["-","k"],["t","able"],["}","_"],["Ġcult","iv"],["ĠSo","ftware"],["pr","ise"],["p","ers"],["cre","en"],["ã","Ģ"],["16","0"],["R","eg"],["h","i"],["/","P"],["al","a"],["el","es"],["ud","d"],["un","te"],["Ġwait","ing"],["ĠB","Y"],["the","y"],["ĠOn","ly"],["ent","ed"],["Ġphot","os"],["Ġingred","ients"],["Ġal","cohol"],["lo","se"],["Ġclean","ing"],["atur","ally"],["b","i"],["d","x"],["ou","nce"],["Ġ[","`"],["ĠCont","rol"],["Ġre","produ"],["Ġfac","ilities"],["Ġent","hus"],[".","'"],["Ġr","ough"],["Ġwebs","ites"],["Ġbir","ds"],["Ġaut","o"],["_","g"],["We","b"],["Ġtw","ice"],["ĠB","re"],["ĠKe","ep"],["Ġp","ul"],["Th","us"],["ĠRep","ublic"],["ar","g"],["olic","y"],["r","ich"],["Ġw","alls"],["Ġvert","ical"],["ific","ate"],["ĠAn","alysis"],["ĠM","art"],["Ġimpro","ving"],["Âł","Zbl"],["p","are"],["Ġcon","vent"],["Ġfound","ation"],["ad","s"],["Ġcl","one"],["itc","hen"],["Ġprep","are"],["Ġwhen","ever"],["Ġdist","ingu"],["Ġt","un"],["Ġunder","lying"],["Ġrad","iation"],["M","any"],["Ġj","u"],["Ġwide","ly"],["Ġinsp","ired"],[".","A"],["ĠD","at"],["Ch","apter"],["Ġrecogn","ize"],["Ġt","aste"],["Ġrad","io"],["Ġbound","ary"],["ĠTechn","ology"],["ple","x"],["ern","ame"],["or","rect"],["Ġe","c"],["Ġus","ual"],["Ã","¡"],["ĠT","ake"],["ĠS","pe"],["ĠR","oman"],["Ġpre","gn"],["AN","T"],["cos","ystem"],["$",".ĊĊ"],["es","sel"],["Ġsk","ill"],["Ġtyp","ical"],["Ġexpl","icit"],["Ġtw","enty"],["Ġincreasing","ly"],["Ġclo","ser"],["ĠC","D"],["ĠW","estern"],["local","host"],["Ġag","ent"],["Ġder","ived"],["ist","ical"],["ĠV","ersion"],["in","ant"],["Ġl","ose"],["ĠD","an"],["Ġmanag","ing"],["Ġstudy","ing"],["k","ay"],["F","F"],["(","b"],["Ġy","e"],["Ġv","ac"],["Ġcaus","ing"],["<","p"],["Ġbelie","ved"],["ĠIs","land"],["Ġopin","ion"],["se","m"],["Ġlink","ed"],["(","f"],["ĠT","able"],["ad","ata"],["ĠNet","work"],["ra","nd"],["pro","cess"],["$$",","],["ess","ions"],["Ġsh","ift"],["âĢĿ",","],["Ġ}","ĊĊ"],["im","ation"],["ot","a"],["Ġra","in"],["con","s"],["Ġsk","y"],["Ġopp","osite"],["?","\""],["ĠC","are"],["ab","ling"],["it","age"],["Ġv","ulner"],["ĠJ","er"],["E","ng"],["Ġcollect","ed"],["a","o"],["``","``"],["-b","e"],["P","U"],["che","ck"],["point","s"],["Ġmathemat","ics"],["anc","hes"],["Ġpromot","ing"],["ĠM","o"],["A","re"],["K","E"],["ĠF","ort"],["Ġdis","s"],["ract","ions"],["_","P"],["Ġl","ie"],["ĠÂ","»"],["Ġr","ig"],["ĠCon","nect"],["Ġfin","ish"],[")","*"],["ĠAd","v"],["!","--"],["Ġb","attle"],["Ġv","ent"],["Ġst","ated"],["ĠJ","SON"],["ang","el"],["Ġfin","ished"],["Ġt","utorial"],["Ġsu","c"],["Ġdel","ay"],["ic","ago"],["und","ay"],["ĠAc","ad"],["ĠO","bject"],["Ġvis","ible"],["/",")Ċ"],["y","e"],["ĠL","ight"],["Ġgen","etic"],["H","ave"],["ĠF","ire"],["ĠB","er"],["ub","s"],["ĠGit","Hub"],["}",",Ċ"],["ĠTh","omas"],["Ġexec","ution"],["d","raw"],["ura","ble"],["Ġst","orm"],["Ġcomm","itted"],["ĠInstall","ation"],[":","\\"],["Ġout","do"],["RO","M"],["ĠT","ur"],["cl","oud"],["Ġfund","ing"],["Ġgir","ls"],["ĠS","ep"],["app","y"],["8","1"],["Ġby","tes"],["Ġun","known"],["ot","o"],["ĠRe","al"],["ĠO","pt"],["ĠLe","vel"],["Ġpow","ers"],["T","C"],["ential","s"],["Ġpur","su"],["Ġt","ab"],["p","at"],["ĠAb","out"],["$","-"],["Ġsp","in"],["ob","ject"],["ï¼","Į"],["(","-"],["Ġsect","ions"],["N","N"],["Ġst","ability"],["Ġstre","t"],["ĠW","ill"],["Ġtell","s"],["Ġdra","wn"],["Ġm","ilk"],["Ġst","one"],["Ġext","ensive"],["Ġrout","ine"],["Ġperspect","ive"],["Ġmedic","ine"],["ar","ks"],["ch","ron"],["ĠT","ext"],["P","art"],["ĠT","R"],["ĠW","here"],["A","ct"],["L","og"],["Ġis","ol"],["Ġch","at"],["Us","ing"],["z","en"],["=","{"],["}}","{"],["Ġcomplic","ated"],["g","ence"],["i","at"],["Ġs","izes"],["Ġo","cean"],["Ġmost","ly"],["Ġmanag","er"],["/","comp"],["v","as"],["ĠJew","ish"],["ĠCur","rent"],["Ġcont","ents"],["ĠAut","hor"],["igen","ous"],["-","de"],["le","ments"],["ĠC","y"],["ĠB","ig"],["ĠA","zure"],["Ġlead","er"],["AS","S"],["Ġw","aves"],["rou","d"],["Ġdifferent","ial"],["ĠGerm","any"],["c","ase"],["s","ion"],["Ġliqu","id"],["t","ics"],["Ġocc","asion"],["ĠT","re"],["ern","el"],["Ġrob","ust"],["O","ther"],["Ġf","ant"],["C","reate"],["en","ess"],["Ġdiscuss","ed"],["O","H"],["Ġcould","n"],["ab","etes"],["m","ake"],["Ġprin","cip"],["ive","red"],["Ġadvent","ure"],["Ġ","ðŁ"],["m","aster"],["in","et"],["clud","ed"],["Ġsol","ving"],["Ġposs","ibly"],["Ġf","ellow"],["ĠR","ad"],["Ġact","s"],["Ġful","f"],["Ġrev","olution"],["Ġdivers","ity"],["Ġstre","et"],["Ġfem","ale"],["Ġnot","ed"],["Ġfind","ings"],["Ġb","ow"],["Ġre","tain"],["Ġcall","ing"],["Ġed","it"],["ĠEx","amples"],["Ġpost","s"],["fig","uration"],["Ġestim","ated"],["ĠVir","gin"],["Ġc","row"],["Ġp","un"],["ĠSec","urity"],["C","S"],["ĠJ","un"],["Ġter","rit"],["s","ome"],["Ġinter","actions"],["ĠChrist","mas"],["ĠP","ass"],["Ġpo","ol"],[".","r"],["h","ad"],["ĠJ","oh"],["ĠM","icrosoft"],["Ġexp","ansion"],["Ġpers","ist"],["ĠMed","ic"],["E","r"],["Ġpre","ferences"],["Ġvert","ex"],[".",")Ċ"],["Ġpl","ain"],["Ġst","ores"],["Ġcontain","ed"],["N","S"],["ut","ter"],["ĠS","a"],["Ġpo","et"],["O","V"],["Ġh","olid"],["ĠP","ay"],["ĠE","st"],["eg","a"],["h","op"],["Ġex","port"],["Ġob","lig"],["Ġax","is"],["c","r"],["Ġarr","ang"],["R","et"],["Ġexam","ine"],["Ġcompar","ison"],["Ġext","ent"],["Ġ",":Ċ"],["Ġinter","action"],["Ã","Ĺ"],["Ġne","ut"],["Ġstate","ments"],["Ġs","en"],["Ġexec","ute"],["Ġvert","ices"],["Ġd","a"],["Ġst","im"],["Ġimprove","ment"],[".",";"],["em","p"],["xy","gen"],["g","rad"],["cl","ient"],["Ġt","aught"],["ĠCl","oud"],["he","red"],["ĠMed","ical"],["Ġsuggest","ed"],["gy","pt"],["ĠL","u"],["Ġman","ip"],["ĠY","ear"],["cur","rent"],["Ġf","av"],["ĠNew","s"],["ĠWh","ich"],["Ġdim","ensions"],["Ġm","ale"],["Ġcapt","ure"],["Ġrapid","ly"],["Ġmix","ed"],["comm","od"],["Ġproced","ures"],["Ġdial","og"],["-f","riendly"],["Ġthous","and"],["St","ate"],["Ġc","art"],["ĠOr","ig"],["18","1"],["Ġprim","arily"],["iction","ary"],["Ġleaders","hip"],["est","ions"],["Ġconstra","ints"],["ĠI","II"],["ĠĠĠĠĠĠĠĠĠĠĠĠĠĠĠĠ","ĠĠĠ"],["C","ur"],["Ġpriv","acy"],["Ġdynam","ics"],["U","nder"],["oura","ge"],["D","is"],["ĠF","lor"],["In","put"],["p","age"],["ĠC","as"],["Ġdest","roy"],["Ġro","of"],["l","ie"],["Ġin","du"],["Ġcl","im"],["Ġappe","ared"],["ar","ity"],["ĠB","al"],["Ġthem","es"],["Ġexpl","anation"],["B","l"],["Ġ","...ĊĊ"],["Ġth","in"],["ĠCh","all"],["Ġha","ven"],["pro","duct"],["Ġconsum","ers"],["ĠFound","ation"],["(","c"],["g","ent"],["Ġclin","ical"],["Ġper","man"],["ĠWh","o"],["ul","ating"],["ĠCent","ral"],["Ġrecogn","ized"],["OR","T"],["Out","put"],["I","ES"],["Ġto","w"],["Ġe","cosystem"],["ĠC","at"],["oo","lean"],["Ġoption","al"],["Ġevalu","ate"],["on","ly"],["Ġsens","itive"],["ex","pected"],["amet","ers"],["mod","el"],["s","ing"],["ic","ing"],["ang","ular"],["Ġprovid","ers"],["18","2"],["Ġtrans","action"],["\\","in"],["Ġbu","nd"],["d","t"],["ĠF","ood"],["Ġcateg","ories"],["erv","es"],["Ġeng","agement"],["ĠFr","ancis"],["lo","re"],["e","al"],["A","ss"],["Ġdis","covery"],["ĠAnd","roid"],["Ġdiv","ision"],["rid","ge"],["ch","ain"],["b","f"],["p","arent"],["Ġp","apers"],["Cl","ass"],["w","in"],["Ġpercent","age"],["Ġapp","lying"],["Ġdevelop","ers"],["Ġext","end"],["ac","ent"],["Ġsurg","ery"],["Ġve","ctors"],["Ġregular","ly"],["y","a"],["Ġrad","ius"],["N","ext"],["Ġposs","ibilities"],["f","o"],["ĠSt","ring"],["A","m"],["Ġ|","ĊĊ"],["Ġintellig","ence"],["s","igma"],["Ġapp","arent"],["Ġmon","itor"],["et","al"],["Ġint","ellect"],["Ġdec","ades"],["f","ol"],["ĠS","earch"],["{","align"],["Ġ","###"],["Ġw","ire"],["Ġse","am"],["OR","Y"],["Ġmove","ments"],["Ġhosp","ital"],["ĠId","ent"],["et","ime"],["Ġne","ither"],["ub","ern"],["Ġefficient","ly"],["Ġspe","aking"],["Ġindic","ates"],["ĠC","ON"],["Ġur","ban"],["Ġelectron","ic"],["Â","®"],["Ġtemper","atures"],["Ġsche","me"],["Ġrepe","ated"],["ĠPro","cess"],["Ġsynt","ax"],["Ġdru","gs"],["od","ed"],["ac","ific"],["Ġcult","ures"],["D","K"],["Ġc","oun"],["Ġd","ocker"],["less","ly"],["8","2"],["Ġn","ations"],["Ġexp","ensive"],[".","M"],["O","bject"],["ĠHT","TP"],["Ġcon","ve"],["Ġconven","ient"],["n","ight"],["Ġ\\","Ċ"],["12","8"],["Ġagre","ement"],["Ġsc","r"],["Ġcompet","ition"],[")",",Ċ"],["Ġed","ition"],["he","m"],["Ġco","vers"],["Ġwrit","er"],["AD","ME"],["ĠK","now"],["Ġra","il"],["i","pt"],["Ġd","ress"],["ĠR","ob"],["qu","ad"],["Ġmill","ions"],["or","a"],["te","en"],["EN","SE"],["b","d"],["There","fore"],["Ġobserv","ations"],["9","1"],["an","ning"],["Ġemerg","ency"],["Ġt","ang"],["l","ers"],["Ġse","ed"],["k","es"],["in","put"],["om","orph"],["old","s"],[".g","oogle"],["ĠCommit","tee"],["ĠP","DF"],["Ġread","er"],["ĠM","useum"],["Ġflu","id"],["ĠL","ast"],["Ġtra","ined"],["ĠĠĠĠĠĠĠĠĠĠĠĠĠĠĠĠ","ĠĠĠĠĠĠĠ"],["Ġj","ump"],["Ġadvant","ages"],["Ġg","ambling"],["Ex","p"],["ĠSp","ace"],["Ġfail","ed"],["cer","ning"],["Ġfor","g"],["Ġsequ","ences"],["Ġsc","al"],["Ġb","ath"],["\">","</"],["Ġsex","ual"],["Ġhe","nce"],["Ġfac","ed"],["ĠS","QL"],["ĠM","er"],["crib","ed"],["p","ost"],["ĠH","and"],["Ġstud","ied"],["Ġamount","s"],["Ġmark","ets"],["Ġsus","p"],["Ġconsequ","ences"],["7","1"],["Ġclass","ic"],["i","ate"],["ĠEn","ter"],["Ġm","ent"],["Ġdep","art"],["ubern","etes"],["J","ust"],["Ø","§"],["Ġv","ideos"],["/p","ull"],["p","x"],["comm","and"],["ĠSpec","ial"],["gra","de"],["Ġprepar","ation"],["Ġfab","ric"],["Ġhe","ro"],["ĠAn","other"],["C","opyright"],["Ġmin","ute"],["/b","adge"],["-b","y"],["Ġexperim","ents"],["7","4"],["'","."],["Ġent","ered"],["Ġshe","l"],["ĠB","ible"],["Ġcar","s"],["pack","age"],["ĠTex","as"],["-f","or"],["ĠCar","ol"],["Ġult","imately"],["Im","age"],["L","S"],["right","arrow"],["Ġnecess","arily"],["/w","iki"],["{","array"],["Ġg","entle"],["ĠP","RO"],["Ġac","comp"],["ĠQ","ue"],["Ġste","el"],["F","T"],["ed","ding"],["Ġag","ency"],["the","ir"],["ĠDo","es"],["id","ation"],["anc","er"],["Inst","all"],["ĠMex","ico"],["Ġw","est"],["Ġlo","an"],["Ġres","il"],["ĠSp","ring"],["Ġbound","aries"],["ĠT","itle"],["Ġpres","ident"],["ĠChar","les"],["M","ay"],["ĠG","a"],["Ġloc","ally"],["Ġelectr","ical"],["Ġmo","ist"],["ce","ived"],["8","3"],["Ġgra","de"],["D","A"],["Ġcour","ses"],["Ġdut","y"],["â","Ĥ"],["Ġcontribut","ions"],["u","ing"],["Ġreview","s"],["-","j"],["Ġstand","ing"],["Ġsche","dule"],["wh","o"],["Ġn","arrow"],["ĠIn","it"],["cre","ens"],["REF","ACE"],["f","irst"],["ĠD","ownload"],["Ġprom","ise"],["ĠT","om"],["Ġman","ual"],["Ġtrack","ing"],["Ġor","ient"],["le","ts"],["Ġeven","ing"],["U","RE"],["Ġun","certain"],["Ġgra","d"],["ĠBuild","ing"],["Ġhoriz","ontal"],["Ġbe","ar"],["or","ous"],["Ġm","ail"],["ul","ed"],["Ġra","ise"],["ond","ay"],["Ġimp","ress"],["Ġscript","s"],["Ġin","equ"],["m","ay"],["ĠE","nd"],["ĠDis","c"],["Ġconduct","ed"],["U","ST"],["Ġg","aming"],["Ġt","iny"],["en","a"],["Ġhor","se"],["Ġconvers","ion"],["ĠSm","ith"],["Ġconsider","ation"],["m","ain"],["ĠN","ext"],["![","]("],["ĠF","act"],["he","rent"],["str","ong"],["Ġs","an"],["ĠTh","ink"],["_","T"],["Ġthan","k"],["12","5"],["Ġorgan","ized"],["Ġc","up"],["se","y"],["ĠAcc","ount"],["ĠM","ulti"],["ĠG","lobal"],["Ġconflic","t"],["ĠPhys","ics"],["ĠE","gypt"],["Ġflow","ers"],["ĠS","P"],["ĠA","S"],["Ġfriend","ly"],["9","3"],["Ġt","ro"],["ĠC","amp"],["ĠH","uman"],["Ġhead","er"],["Ġcirc","uit"],["-","W"],["p","onse"],["ĠD","ocker"],["Ġwill","ing"],["Ġbu","ff"],["Ġexce","ption"],["Ġstat","istics"],["Ġwat","ers"],["rel","ation"],["ĠCath","olic"],["Ġb","ag"],["Ġill","ness"],["-","E"],["he","et"],["us","hed"],["ĠN","ode"],["ag","on"],["Ġad","ult"],["Ġrecord","ed"],["ĠRe","act"],["Ġprot","ected"],["(","Ċ"],["m","o"],["Ġacc","ident"],["Ġsign","als"],["<","!--"],["et","ails"],["xi","ety"],["Ġdec","or"],["Ġgr","ass"],["et","t"],["Ġunder","stood"],["y","our"],["Ġf","le"],["Ġis","land"],["Ġins","ert"],["ĠRep","ort"],["Ġfost","ering"],["Ġass","igned"],["Ġp","and"],["\\","_"],["Ġmount","ain"],["ĠD","NA"],["Ġveh","icles"],["ĠL","im"],["Ġsupp","osed"],["Ġmat","ches"],["it","ig"],["as","tern"],["il","ation"],["Ġpl","astic"],["ult","ane"],["ic","ular"],["ĠI","r"],["Ġcommun","icate"],["F","ind"],["Ġsu","it"],["Ġatt","ached"],["Ġpol","ice"],["OU","N"],["Ġcry","st"],["it","ud"],["ĠJava","Script"],["ĠF","ile"],["Ġsl","ot"],["ĠComm","on"],["ĠĠĠĠĠĠĠĠ","ĠĠĠĠĠĠ"],["Ġpop","ulations"],["o","ptional"],["pl","ates"],["sp","ace"],["Ġdim","ension"],["D","ate"],["D","elta"],["Ġp","y"],["ic","he"],["ud","io"],["ĠPro","duct"],["ĠGu","ide"],["Ġsav","ed"],["ou","red"],["ĠB","oston"],["C","M"],["Ġw","ra"],["Ġwind","ows"],["ĠMathemat","ics"],["D","r"],["Ġn","aturally"],["Ġinter","vals"],["ĠCol","or"],["Ġadminist","r"],["Ġcomput","ers"],["ĠIm","agine"],["Ġsc","ope"],["ot","ion"],["Ġrec","overy"],["Ġtrou","ble"],["it","is"],["ud","o"],["ail","ability"],["(","["],["g","ener"],["or","ig"],["is","ters"],["ro","ke"],["Ġn","pm"],["ri","a"],["Ġloc","k"],["ĠS","H"],["Ġdirect","or"],["AR","D"],["7","6"],["ic","ism"],["Ġbu","g"],["Ġwit","ness"],["Ġph","r"],["Ġbon","us"],["Ġbeg","ins"],["&","#"],["Ġsh","op"],["Ġform","ation"],["-w","ith"],["T","ra"],["Ġe","ast"],["IN","E"],["ĠSe","cret"],["ĠF","ig"],["Ġmod","ified"],["Ġrecogn","ition"],["Ġdisplay","ed"],["rac","ing"],["av","y"],["@","example"],["Ġp","ra"],["IC","ENSE"],["c","irc"],["Ġdescrib","es"],["Ġhouse","hold"],["Ġp","roud"],["ĠW","orks"],["ĠL","ake"],["Ġmeasure","ment"],["ĠB","est"],["Ġquant","ity"],["Ġincred","ible"],["w","idth"],["Ġb","read"],["Ġorgan","ic"],["(","y"],["Ġreg","ression"],["Ġint","ric"],["Ġag","encies"],["Ġaud","io"],["Ġemot","ions"],["Ġcop","ies"],["-","ci"],["c","ar"],["M","essage"],["im","s"],["Ġg","ift"],["est","yle"],["ĠR","ock"],["/","github"],["9","2"],["Ġm","ir"],["th","rough"],["ĠL","i"],["Ġprof","it"],["Ġt","or"],["un","s"],["Ġshap","es"],["(","d"],["V","ID"],["Ġp","ed"],["Ġv","oid"],["ĠF","inally"],["Ġmor","al"],["N","E"],["Ġle","ct"],["Ġe","igen"],["Ġintrodu","ce"],["Ġconsum","er"],["Ġen","abled"],["Ġcomp","act"],["-d","imensional"],["Ġless","on"],["ĠFace","book"],["Ġpre","v"],["Ġconvers","ation"],["9","4"],["ot","ing"],["ab","out"],["Ġdis","cipl"],["Ġwould","n"],["igh","ter"],["Ġdel","ivered"],["A","c"],["Ġstrong","er"],["Cl","ient"],[">","`"],["Ġa","ward"],["ĠF","ollow"],["Ġmere","ly"],["g","ers"],["ĠS","unday"],["ri","ers"],["Ġmom","ents"],["Ġt","um"],["Ġde","lete"],["Ġcomput","ing"],["Ġperfect","ly"],["ĠJapan","ese"],["(","("],["C","R"],["g","raph"],["on","a"],["ad","ian"],["Ġfl","ight"],["ĠP","rom"],["Ġpartic","le"],["ĠB","efore"],["Ġchann","els"],["ul","er"],["Ġserv","ing"],["13","0"],["AM","E"],["Ġmeasure","ments"],["B","ack"],["Ġ","Ð"],["Ġinf","ection"],["E","very"],["ĠG","r"],["Ġmanufact","uring"],["ĠI","T"],["Ġcons","ervation"],["im","p"],["Ġdel","ve"],["Ġt","rib"],["Ġreg","ional"],["Ġput","ting"],["Ġf","ell"],["ĠC","ard"],["ĠâĢĶ","ĊĊ"],["am","i"],["ĠV","er"],["ĠLou","is"],["Ġw","ine"],["um","a"],["ĠHe","ad"],["ĠAm","azon"],["lic","ations"],["Ġmod","ify"],["st","one"],["Ġsp","ending"],["Ġob","st"],["Ġtransport","ation"],["M","ost"],["Ġm","al"],["Ġco","ffee"],["g","al"],["ĠG","al"],["Ġimmedi","ate"],["Che","ck"],["Ġstr","ange"],["Ġelectric","ity"],["Ġb","urn"],["Ġv","essel"],["lo","cation"],["C","ons"],["w","hat"],["Ġtr","ick"],["Ġac","commod"],["Ġcreat","ivity"],["un","c"],["ĠD","ate"],["Ġmain","ly"],["Ġo","xygen"],["olog","ist"],["ĠCh","ange"],["Ġexpect","ations"],["Ġcook","ing"],["8","4"],["Ġdiscuss","ions"],["ĠProfess","or"],["ĠF","unction"],["ĠU","I"],["Ġest","ate"],["r","ating"],["Ġ(","`"],["Ġmatch","ing"],["Ġre","ward"],["St","art"],["Ġdest","ination"],["Ġinstr","ument"],["Ġhon","or"],["F","OR"],["as","ant"],["Ġinter","active"],["Â","·"],["Ġpart","ial"],["Ġphot","o"],["Ġre","ferences"],["Ġintrodu","ction"],["ol","a"],["Ġgain","ed"],["ou","ble"],["ind","s"],["Ġde","aling"],["Ġab","stract"],["Ġrest","aur"],["cript","ions"],["ĠSimilar","ly"],["Ġge","ometry"],["S","ource"],["Ġc","odes"],["b","ing"],["v","a"],["Ġg","all"],["ch","o"],["-","app"],["F","inally"],["g","roup"],["Ġc","ooper"],["/","."],["c","est"],["ĠĠĠĠĠĠĠĠĠĠĠĠĠĠĠĠĠĠĠĠĠĠĠĠĠĠĠĠĠĠĠĠ","ĠĠĠĠĠĠĠĠĠĠĠĠĠĠĠĠĠĠĠĠĠĠĠĠĠĠĠĠĠĠĠĠ"],["An","y"],["Ġattack","s"],["ant","a"],["Ġord","ered"],["Ġperm","ut"],["Ġdoll","ars"],["U","I"],["Ġe","ase"],["Ġ`","."],["ĠDef","ault"],["S","ervice"],["T","ext"],["Ġdemonstr","ate"],["ĠM","a"],["Ġgrow","n"],["Ġtrad","itions"],["(","m"],["M","r"],["Ġs","alt"],["Ġdep","artment"],["Ġrepresent","ing"],["C","I"],["w","est"],["ĠW","ood"],["Ġachie","ved"],["ĠÃ","Ĺ"],["ogn","itive"],["ĠDirect","or"],["ĠS","ci"],["Ġbelie","fs"],["Ġf","ert"],["Ġre","ject"],["Ġvisit","ors"],["Ġdefinite","ly"],["Ġdel","ight"],["ic","ity"],["Ġdist","rict"],["Ġdirect","ions"],["Ġredu","ces"],["Ġrepl","aced"],["Ġann","ounced"],["Ġdog","s"],["Ġrece","iving"],["ul","um"],["re","ens"],["Ġre","in"],["Ġconf","irm"],["Ġcr","is"],["ĠPar","is"],["Ġhard","ware"],["Ġup","load"],["Ġany","where"],["Ġmov","ie"],["Ġt","urning"],["Ġb","ot"],["Ġy","ellow"],["Ġpl","ate"],["Ġsomew","hat"],["i","en"],["ĠAn","sw"],["Ġc","ere"],["Ġ.","/"],["Ġvol","unte"],["Ġ","```ĊĊ"],["ĠJ","ose"],["ĠSp","anish"],["Ġexerc","ises"],["ĠFe","atures"],["it","a"],["ĠJ","ud"],["7","3"],["Ġmod","ules"],["Ġ&","&"],["Ġassess","ment"],["s","ource"],["s","rc"],["ĠH","om"],["Ġadminist","ration"],["im","er"],["Ġsum","mary"],["Ġmeaning","ful"],["n","umber"],["Ġb","ird"],["Ġpl","enty"],["Ġ`","/"],["Ġinteg","rated"],["ĠAt","l"],["Ġanaly","ze"],["ĠCommun","ity"],["Ġb","es"],["Ġfac","ing"],["b","el"],["Ġim","per"],["co","in"],["Ġwonder","ful"],["m","d"],["Ġvol","tage"],["c","at"],["ffic","ients"],["i","est"],["Ġag","es"],["Ġemploy","ed"],["ĠStud","y"],["Ġt","ap"],["in","ition"],["ĠE","X"],["Ġperm","ission"],["Ġmechan","ism"],["AP","I"],["ĠTr","ue"],["th","s"],["Ġinj","ury"],["}$",","],["Ġnucle","ar"],["Ġt","ight"],["10","8"],[".","st"],["ĠÂ","·"],["Ġl","ux"],[")",")ĊĊ"],["F","e"],["ĠU","t"],["ĠCh","icago"],["me","an"],["Ġinput","s"],["Ġf","ro"],["Ġclo","ck"],["Ġdiag","ram"],["Ġslow","ly"],["Ġinf","ect"],["Ġs","essions"],["Ġcent","uries"],["ru","it"],["ĠL","and"],["s","v"],["Ġcomp","osition"],["in","n"],["rou","ps"],["ann","el"],["Ġegg","s"],["Ġprincip","al"],["A","ST"],["A","U"],["ĠR","ight"],["Ġ\\","$"],["aut","h"],["Ġrespons","es"],["Ġla","un"],["Ġaim","s"],["_","l"],["h","an"],["op","ic"],["olog","ists"],["Ġdisc","rim"],["Ġsuc","ceed"],[".","P"],["comm","it"],["Ġhold","ing"],["Ġang","les"],["Ġdanger","ous"],["R","S"],["W","ell"],["Ġb","less"],["Ġk","itchen"],["C","ONTENTS"],[")","+"],["ĠM","iddle"],["ĠE","N"],["Ġtrans","actions"],["Ġst","ead"],["ĠRober","t"],["b","ur"],["Ġv","an"],["Ġgreat","ly"],["Ġk","il"],["ĠE","conom"],["Ġcons","cious"],["Ġdec","imal"],["Ġart","ist"],["Ġp","ix"],["Ġn","p"],["Ġhon","est"],["Ġ","``"],["Ġb","in"],["ĠR","est"],["et","c"],["Ġord","inary"],["G","u"],["ra","cy"],["-","related"],["ell","ed"],["Ġres","ist"],["Ġoutput","s"],["d","k"],["Ġinst","itution"],["ĠÂłĠÂł","ĠÂłĠÂł"],["Hel","lo"],["or","gan"],["Ġrot","ation"],["ĠHel","p"],["T","able"],["Ġoper","ate"],["Ġdeep","ly"],["user","content"],["Ġhous","es"],["M","IT"],["ĠA","rab"],["Ġinter","ior"],["d","ocker"],["w","ere"],["irt","ual"],["it","em"],["Ġexc","ited"],["(","A"],["br","id"],["onym","ous"],["_","ĊĊ"],["Ġp","ounds"],["Ġatt","ributes"],["$","{"],["Ġt","issue"],["b","urg"],["Ġfe","es"],["Ġjo","ined"],["J","ohn"],["ĠM","ont"],["Ġent","ries"],["Ġimplement","ing"],["el","i"],["Ġun","like"],["25","6"],["Ġgen","e"],["Ġhundred","s"],["_","S"],["Ġs","ampl"],["ag","n"],["Ġwis","dom"],["Ġnot","iced"],["Ġk","id"],["ĠFr","id"],["ĠFr","ank"],["-","cont"],["ĠP","eter"],[".","co"],["ĠI","V"],["Ġtra","ding"],["B","ER"],["d","ated"],["ĠThe","ory"],["Ġun","iverse"],["for","ward"],["Ġs","ight"],["-","res"],["b","a"],["re","p"],["Ġremark","able"],["Â","²"],["ĠC","ult"],["Ġapplic","able"],["ĠHen","ry"],["Ġb","low"],["10","3"],[".github","usercontent"],["âĢĿ","Ċ"],["T","O"],["tra","vis"],["ĠQu","estion"],["-","x"],["ĠP","an"],["ĠC","le"],["ax","is"],["Te","X"],["ĠStand","ard"],["Ġeval","uation"],["ĠCl","ub"],["ĠL","ocal"],["end","ar"],["Ġm","ine"],["ĠP","et"],["Ġwe","ap"],["Ġres","idents"],["val","ues"],["Al","so"],["ĠRet","urn"],[".y","ml"],["Ġl","uck"],["Ġreal","ized"],["ĠSp","irit"],["Ã","¶"],["og","en"],["Ġbatter","y"],["ĠS","ar"],["Ġ`","<"],["Ġarri","ved"],["Ġk","m"],["Ġar","ms"],["Ġfe","els"],["Ġbo","ys"],["Ġcompet","itive"],["F","S"],["Ġperspect","ives"],["ĠVirgin","ia"],["Ġw","et"],["ĠCour","se"],["Ġexp","osed"],["Ġchar","ges"],["Ġposs","ibility"],["ĠFlor","ida"],["Ġrep","air"],["ĠInd","ust"],["Ġgen","es"],["Ġco","al"],["ĠW","rite"],["AN","Y"],["Ġfour","th"],["Ġ","!ĊĊ"],["Ġw","ww"],["ĠS","ometimes"],["ie","ce"],["Ġsepar","ated"],["Ġpan","el"],[")","-"],["ĠTh","ose"],["Ġremain","ed"],["ĠIm","port"],["H","and"],["at","ial"],["Ġaddress","ing"],["Ġsupp","ose"],["Ġadopt","ed"],["(","X"],["ri","p"],["Ġen","abling"],["ĠEn","c"],["Ġregard","less"],["le","q"],["Ġreg","ul"],["br","idge"],["Ġinit","ially"],["Val","ue"],["i","ot"],["cul","es"],["m","ail"],["v","ari"],["Ġo","d"],["Ġtreat","ments"],["F","igure"],["Ġs","elling"],["ĠM","en"],["Th","rough"],["Ġcount","y"],["ct","r"],["ĠN","or"],["C","P"],["am","ond"],["ag","ram"],["ĠApp","le"],["Ġla","id"],["P","e"],["b","ooks"],["Ġun","w"],["Ġbre","ast"],["_","st"],["d","elta"],["ĠC","a"],["ĠM","aster"],["un","ity"],["Ġdet","ection"],["Ġins","ight"],["Ġiss","ued"],["Acc","ording"],["k","top"],["Ġre","ly"],["Ġcon","cerning"],["Ġestim","ates"],["Ġw","ise"],["form","ance"],["ound","ed"],["Ġf","ly"],["ĠP","y"],["out","put"],["Ġclass","ical"],["Ġstrateg","ic"],["Ġvibr","ant"],["ok","ing"],["Ġsubst","ance"],["Ġparticip","ate"],["i","ar"],["Ġto","x"],["ro","ot"],["Ġa","th"],["ĠQu","estions"],["R","un"],["e","q"],["14","0"],["Ġminim","ize"],["is","hes"],["Ġh","us"],["Ġaim","ed"],["Ġflex","ible"],["f","ra"],["Ġeng","aged"],["Ġbond","s"],["Ġg","rew"],["ot","ton"],["Ġaddress","es"],["Ġdep","osit"],["Ġur","l"],["er","os"],["ĠP","acific"],["Ġscenari","o"],["loy","ment"],["Ġbroad","er"],["N","ode"],["ow","ers"],["Ġwalk","ing"],["qu","ery"],["Ġsh","ot"],["ĠRuss","ia"],["Ġregist","ered"],["Ġpain","t"],["Ġcoordin","ate"],["Ġch","art"],["Ġag","ents"],["Ġdi","abetes"],["Ġderiv","ative"],["Ġneighbor","hood"],["h","im"],["ĠI","ss"],["Ġad","equ"],["Ġconcern","ed"],["ĠS","il"],["Ġan","xiety"],["ast","ing"],["ĠIn","vest"],["/t","ree"],["Ġconstant","ly"],["ĠW","rit"],["Ġmod","er"],["Ġexpl","oration"],["Ġhab","its"],["ĠP","ri"],["Ġmass","ive"],["âĸ","¡"],["Ġoccur","red"],["ĠO","b"],["Ġprodu","cing"],["Ġinvestig","ation"],["Ġprodu","ces"],["Qu","ery"],["Ġguarant","ee"],["Ġhe","aring"],["ĠF","igure"],["Ġsim","ulation"],["lo","at"],["Ġobject","ive"],["Ġpublic","ation"],["Ġlab","els"],["eff","ect"],["b","et"],["line","ar"],["R","A"],["^","\\"],["um","in"],["ore","m"],["ĠL","atin"],["Ġdiv","is"],["ĠMe","an"],["L","ook"],["Ġal","le"],["Ġcheck","ing"],["D","P"],["ang","les"],["Ġcalcul","ation"],["c","ers"],["/","to"],["ĠM","IT"],["um","bers"],["Ġofficial","s"],["force","ment"],["^","n"],["Ġover","w"],["Ġpresent","ation"],["Ġs","ke"],["Ġme","at"],["t","ic"],["Ġsp","r"],["ĠIm","age"],["hel","p"],["r","ates"],["ĠS","er"],["Ġbig","ger"],["and","om"],["Ġcrit","eria"],["Ġconf","ir"],["ĠSol","utions"],["Ġstrugg","le"],["ack","s"],["10","9"],["ĠVis","ual"],["m","n"],["hold","ers"],["Ġf","ib"],["ĠM","ad"],["ĠEx","ec"],["uss","ian"],[".","app"],["the","m"],["Ġdeb","t"],["Ġshap","ing"],["ĠB","E"],["Ġem","bra"],["Ġprov","ed"],["Ġatt","ribute"],["Ġsign","ed"],["Ġrecommend","ations"],["it","ut"],["Ġan","not"],["00","1"],["Ġret","ail"],["Com","m"],["tain","er"],["C","al"],["17","0"],["resh","old"],["Ġut","ility"],["Ġbreat","h"],["Ġdo","ors"],["Ġfe","e"],["IC","E"],["Ġlight","s"],["ro","x"],["}$$","ĊĊ"],["app","ed"],["D","on"],["Ġsim","ultane"],["Ġmus","cle"],["r","ical"],["ĠM","ill"],["ĠW","omen"],["ef","ined"],["Ġ","```Ċ"],["an","es"],["ain","ed"],["}","+"],["Ġt","ags"],["ac","her"],["Ġdecre","ase"],["O","B"],["ĠC","all"],["Ġover","l"],["Ġbelie","f"],["f","ast"],["â","Ħ"],["Ġst","ages"],["Ġcon","crete"],["ĠD","ynam"],["Ġcompl","iance"],["er","ts"],["Ġal","ike"],["(","p"],["Ġche","cks"],["br","anch"],["es","ome"],["or","ry"],["ri","um"],["Al","though"],["ĠStud","ents"],["Ġdis","order"],["Ġevery","day"],["Ġmag","ic"],["Ġfor","ced"],["Ġ[","#"],["ĠMan","ager"],["/","R"],["Ġc","ab"],["ist","an"],["ĠAd","minist"],["Ġlay","out"],["ĠChe","m"],["'","]"],["L","D"],["ĠAs","ia"],["Ġ","rom"],["ĠM","onday"],["lo","p"],["Ġr","ational"],["Ġnut","rition"],["Ġre","form"],["Ġdis","k"],["Ġpres","ents"],["Ġcontroll","ed"],["Ġte","eth"],["Ġag","reed"],["ios","ity"],["/","#"],["Ġp","uzz"],["ĠFrid","ay"],["Ġprec","ision"],["ĠY","et"],["Ġke","eps"],["ut","s"],["ub","lished"],["Ġappe","al"],["Ġs","oc"],["Ġb","order"],["ĠW","ild"],["Ã","Ń"],["in","ux"],["Ġv","ote"],["Ġqu","iet"],["Ġqu","arter"],["Ġpre","fix"],["ab","el"],["Ġat","oms"],["ome","ga"],["ĠAn","aly"],["AC","T"],["in","clude"],["Ġw","id"],["Ġcontrol","s"],["Ġne","uro"],[".","php"],["t","an"],["ack","ages"],["Ġimpact","s"],["S","pec"],["ne","cess"],["ro","oms"],["Ġimprove","ments"],["D","uring"],["k","g"],["Ġequ","ally"],["Int","roduction"],["Ġoptim","ization"],["Su","ppose"],["Ġexperim","ental"],["!","\""],["Ġcur","ious"],["Ġsur","faces"],["Ġfl","av"],["Ġlarge","ly"],["Ġsent","ence"],["M","P"],["Ġin","sect"],["\\","end"],["/","B"],["w","ar"],["ed","y"],["ĠP","ot"],["Ġ|","|"],["Ġgra","ce"],["-m","aking"],["Ġfair","ly"],["re","al"],["se","ll"],["Ġab","und"],["Ġk","illed"],["-","z"],["Ġbre","aking"],["Ġcoe","fficients"],["F","L"],["G","e"],["it","ting"],["ĠR","oad"],["Ġmat","rices"],["Ġprocess","ed"],["Ġquad","r"],[",","'"],["E","xt"],["Ġun","expected"],["s","pec"],["ch","ing"],["red","ict"],["RO","DU"],["Ġam","pl"],["-p","art"],["Ġbring","ing"],["Ġincorpor","ating"],["Ġcris","is"],["Ġs","ending"],["Ġk","ill"],["Ġessential","ly"],["be","ing"],["{","R"],["Ġpre","ced"],["de","velop"],["Ġreason","able"],["ĠC","ond"],["ĠP","ers"],["Ġun","iversity"],["Ġalong","side"],["ĠC","S"],["ĠW","al"],["ĠNot","es"],["ĠN","ature"],["Ġindust","ries"],["put","e"],["TH","ER"],["Ġdifficult","y"],["Ġres","on"],["Ġorig","inally"],["Ġstrong","ly"],["Ġnorm","ally"],["A","rt"],["ä","»"],["Ġin","qu"],["Ġf","t"],["Ġchar","ged"],["Ġfurn","iture"],["B","ecause"],["ĠA","WS"],["P","M"],["ĠCh","ildren"],["F","O"],["Ġ[","Ċ"],["Ġviol","ence"],["Ġd","aughter"],["ay","er"],["Ġper","mit"],["epend","ent"],["Ġb","le"],["_","\\"],["m","ega"],["Ð","µ"],["Ġre","nd"],["arr","ant"],["i","h"],["Ġprefer","red"],["at","o"],["Ġst","ood"],["Ġwor","se"],["Ġadv","is"],["Ġs","ick"],["ĠC","L"],["Ġar","ts"],["Ġ/",">Ċ"],["Ġ>","="],["ĠMich","ael"],["_","x"],["ĠC","SS"],["ens","us"],["17","8"],["Ġbr","idge"],["Ġvill","age"],["G","L"],["ic","an"],["Ġwhere","as"],["Ġ<","="],["Ġintellect","ual"],["/","images"],["N","ET"],["c","ateg"],["Ġg","ro"],[".","ex"],["Ġg","al"],["Ġin","verse"],["Ġem","issions"],["$$","Ċ"],["Ġwrit","ers"],["Ġunivers","al"],["G","o"],["Ġtext","s"],["Ġtransl","ation"],["en","ame"],["ro","py"],["ĠD","ifferent"],["Ġcol","our"],["Ġbig","gest"],["b","ug"],["ĠE","ffect"],["Ġgraph","s"],["Ġenc","ounter"],["Ġant","ib"],["AB","LE"],["Ġa","est"],["ĠT","ry"],["*","("],["F","A"],["Ġn","ine"],["Ġflex","ibility"],["Ġsuppl","ies"],["Ġfru","its"],["\":","\""],["ĠJoh","ns"],["ad","ing"],["ĠL","I"],["17","9"],["Ġ:","="],["ĠRuss","ian"],["](../","../"],["in","cluding"],["Ġwhe","el"],["Ġres","id"],["Ġlight","ing"],["ĠBl","ue"],["ĠE","p"],["Ġcent","re"],["Ġdiv","ide"],["Ġreal","ize"],["ĠB","rown"],["Ġpe","ak"],["ĠAm","ong"],["ĠE","nt"],["Ġappl","ies"],["Ġbacter","ia"],["Ġoutdo","or"],["/",")ĊĊ"],["Ġt","all"],["Ġf","o"],["Ġret","rie"],["ĠSu","pp"],["Ġappreci","ation"],["3","60"],["f","ront"],["u","ine"],["y","cl"],["if","act"],["Ġep","is"],["l","ation"],["Ġacc","um"],["Ġbrow","n"],["Ġcl","ust"],["Ġdis","orders"],["Ġte","a"],["ble","ms"],["ĠSe","a"],["ĠLear","n"],["Ġvir","us"],["Ġw","el"],["Ġd","ust"],["Ġele","ction"],["st","on"],["P","age"],["io","x"],["re","ction"],["Ġcl","ot"],["Ġnear","by"],["og","rap"],["Ab","out"],["-","com"],["ĠM","achine"],["Ġlist","ening"],["Ġman","ually"],["Ġveget","ables"],["ĠB","ob"],["os","h"],["ĠN","atural"],["Ġpain","ting"],["Ġcopy","right"],["Ġs","aving"],["Ġw","arning"],["ĠUp","date"],["Ġt","ill"],["Ġso","ph"],["Ġ;","ĊĊ"],["ĠApp","lication"],["h","ist"],["ĠS","ection"],["Ġconf","ident"],["ĠDist","rict"],["(","i"],["Ġtra","dition"],["Ġtail","ored"],["red","it"],["Ġelect","ro"],["Ġpolit","ics"],["Ġadj","acent"],["Ð","¾"],["or","al"],["Ġf","ont"],["Ġun","us"],["Ġfac","ility"],["Ġfost","er"],["u","ilt"],["Ġp","in"],["bs","ite"],["o","ices"],[".","R"],["Ġconve","x"],["Ġ","era"],["Ġl","at"],["Ġele","g"],["Ġexam","ining"],["Ġan","cest"],["Ġfarm","ers"],["Ġarbit","rary"],["N","e"],["em","ail"],["ĠL","ink"],["Pro","v"],["M","on"],["Ġb","one"],["Ġn","om"],["ug","ht"],["Ġconnect","ing"],["Ġout","come"],["Ġdirect","ed"],["o","ption"],["as","ters"],["Ġne","ck"],["ire","ments"],["Ġcont","ribution"],["ear","ing"],["Ġreport","ing"],["Ġsubsequ","ent"],["Ġresil","ience"],["(","{"],["ber","ry"],["Ġsupp","lement"],["t","witter"],["u","f"],["Ġar","my"],["Ġprop","ag"],["-","off"],["Ġf","aces"],["ĠF","amily"],["Ġgener","ator"],["Ġclass","ification"],["Ġexam","ination"],["los","ed"],["_","to"],["ĠC","ook"],["Ġ(","-"],["Ġse","at"],["Ġsubstant","ial"],["10","5"],["âĢĿ","."],["Ġdem","ands"],["Ġnut","ri"],[".","edu"],["Ġass","ert"],["Ġbuy","ing"],["Ġsch","olar"],["Ġf","iction"],["Ġv","ar"],["Ġse","eds"],["row","s"],["ty","pes"],["atur","day"],["am","m"],["Ġsh","oot"],["itud","es"],["Ġcon","ference"],["Ġneg","ot"],["ess","on"],["Ġenthus","i"],["U","P"],["il","ton"],["ag","ues"],["-","known"],["}","."],["ion","e"],["Ġbr","anches"],["Ġcr","im"],["H","is"],["on","ential"],["ĠT","w"],["ĠM","el"],["form","at"],["Ġgu","ard"],["Ġcomm","ission"],["Ġlif","estyle"],["Ġfind","s"],["Ġver","ify"],["Ġspect","rum"],["inf","o"],["Ġcandid","ate"],["Ġdeb","ug"],["r","ho"],["Ġdepend","ent"],["h","igh"],["Ġn","an"],["Ġsatisf","action"],["il","ib"],["ve","ll"],["ĠW","H"],["ĠA","B"],["ĠN","eed"],["ĠMod","ern"],["um","ps"],["Ġinv","al"],["Ġst","ake"],["L","ear"],["Ġf","an"],["Ġmet","ric"],["Ġp","il"],["Ġre","verse"],["ĠH","oly"],["z","ed"],["Ġr","id"],["Ch","rist"],["Ġimm","une"],["Ġpros","pect"],["1","12"],["F","ig"],["Ġle","af"],["we","et"],["ĠT","reat"],["ow","ed"],["ĠI","de"],["Ġinter","section"],["Ġend","ed"],["EN","D"],["Ġsil","ver"],["=","-"],["V","ersion"],["Ġm","m"],["ĠD","en"],["St","ud"],["Ġmar","ks"],["-","old"],["F","ollow"],["is","her"],["requ","est"],["Ġenh","ancing"],["it","ative"],["Ġr","ub"],["Ġpay","ments"],["Ġs","le"],["p","an"],["ĠH","ence"],["Ġad","min"],["P","oint"],["ĠL","ead"],["Ġart","ificial"],["ĠCOM","P"],["ON","E"],["Ġs","ought"],["l","ights"],["es","h"],["Ġw","arn"],["ab","il"],["ĠL","anguage"],["Ġeth","ical"],["ĠEngine","ering"],["Ġemploy","ee"],["G","oogle"],["ĠC","E"],["Ġprint","ing"],["V","M"],["ĠUS","A"],["]","]"],["s","up"],["Ġf","ans"],["ou","l"],["Ġext","ends"],["Ġcontribut","ing"],["Ġinsp","iration"],["Ġsh","opping"],["ĠIs","lam"],["ĠD","igital"],["Ġcomb","ine"],["as","ets"],["M","AT"],[".p","df"],["Ġaffect","s"],["b","ig"],["t","ons"],["{","b"],["Ġre","venue"],["Ġnot","ation"],["arch","ive"],["ol","it"],["Ġm","oon"],["Ġh","ole"],["Ġcent","ers"],["J","S"],["Ġg","ate"],["Ġas","p"],["ha","ust"],["p","ress"],["Ġcomp","ens"],["Ġbu","ck"],["ĠC","ross"],["ĠC","ivil"],["al","ian"],["Ġmar","ried"],["Ġmar","riage"],["th","an"],["Ġanal","og"],["Ġb","an"],["out","e"],["17","7"],["Ġelectr","ons"],["ĠCarol","ina"],["I","O"],["Ġm","erg"],["Ġunder","t"],["Ġsqu","ares"],["Ġcas","inos"],["eps","ilon"],["it","led"],["Ġobserv","ation"],["u","ction"],["ä","º"],["cre","ts"],["ram","ework"],["ĠRes","ources"],["ri","ver"],["Ġ\"","ĊĊ"],["av","al"],["ser","ver"],["IS","H"],["A","IN"],["m","ic"],["ft","en"],["Ġbet","ting"],["Ġreal","m"],["Ġp","ump"],["Ġselect","ing"],["Ġmind","s"],["p","ip"],["ĠS","af"],["Ġrespect","ive"],["ĠF","ederal"],["\"",",\""],["Ġab","use"],["-c","ol"],["\\","begin"],["r","us"],["Ġm","apping"],["ĠS","ource"],["ĠS","eries"],["Ġde","ar"],["ĠD","epend"],["ĠG","ame"],["ak","ed"],["AC","K"],["Ġlimit","ations"],["r","ust"],["r","ide"],["Ġw","al"],["ĠF","und"],["ĠCh","oose"],["om","ething"],["c","end"],["Ġcomp","ass"],["Ġpr","ison"],["Ġappro","ved"],["Ġperform","ing"],["ĠF","ather"],["unt","u"],["Ġprior","ity"],["/","api"],["Er","ror"],["Ġst","o"],["Ġprofess","or"],["-","end"],["B","ob"],["C","A"],["Ġun","able"],["Ġro","oms"],["}","-"],["Ġg","ram"],["ur","ches"],["ĠP","oly"],["O","rig"],["Ġwe","ights"],["Th","anks"],["/","("],["Ġc","ov"],["ĠC","irc"],["Ġun","ion"],["Ġemerg","ing"],["Ġin","her"],["ĠS","cript"],["ĠB","ur"],["Ġperman","ent"],["H","S"],["h","ome"],["j","avascript"],["Ġu","l"],["Ġexecut","ed"],["ocr","atic"],["in","er"],["ĠS","outhern"],["Ġbo","ot"],["az","e"],["Ġremov","ing"],["e","ven"],["ĠTe","am"],["Ġremov","al"],["Ġcon","vey"],["ĠH","ill"],["n","ormal"],["Ġfe","at"],["Ġam","id"],["$$","."],["Ġimm","ig"],["/","app"],["9","00"],["Ġor","g"],["Ġab","ilities"],["ĠGra","nd"],["f","oo"],["Ġsp","ort"],["Ġpay","ing"],[")","`"],["o","ir"],["}","=\\"],["Ġd","ates"],["Ġme","al"],["Ġlic","ensed"],["Ġexp","enses"],["Ġfew","er"],["es","ter"],["acc","ount"],["Ġwatch","ing"],["Ġmedic","ations"],["ĠAre","a"],["w","ing"],["Ġdef","ines"],["Ġcoe","fficient"],["\\","pi"],["Ġr","an"],["Ġdom","estic"],["Ġacknow","led"],["ĠW","ed"],["ues","day"],["Ġiniti","atives"],["ĠPro","blem"],["39","3"],["Ġmechan","isms"],["Gener","al"],["ĠMedic","ine"],["Ġb","anks"],["Ġcook","ies"],["S","QL"],["Ġn","it"],["Ġg","ap"],["Ġdo","ctors"],["ĠCol","umb"],[".","-"],["at","ile"],["ĠTh","ree"],["eng","er"],["Se","lect"],["L","Y"],["n","on"],["Ġheav","en"],["Ġpray","er"],["ithm","etic"],["Ġvari","ations"],["Ġauthor","ities"],["Ġproport","ion"],["Ġslo","pe"],["R","Y"],["em","plate"],["Ġâ","ĸ"],["Q","U"],["x","iv"],["Ġal","ter"],["ĠB","ill"],["Con","clusion"],["I","E"],["P","ath"],["Ġbox","es"],["Ġsw","im"],["Ġmar","g"],["ĠStr","ateg"],["Ġrel","ief"],["ĠMed","ia"],["Ġliter","ary"],["Ã","¼"],["ry","ption"],["ĠL","ow"],["Ġcomp","os"],["erc","ise"],["Ġfocus","es"],["Ġconvent","ional"],["-","cent"],["f","alse"],["Ġcalcul","ations"],["ĠM","D"],["Ġprof","ound"],["C","ar"],["Ġex","it"],["Ġpost","ed"],["ĠIm","plement"],["Ġcomp","r"],["Ġthere","by"],["Ġemp","ower"],["b","ot"],["dict","ion"],["Ġimplic","ations"],["[","'"],["ĠP","olicy"],["OR","D"],["Ġsearch","ing"],["ĠIm","pro"],["st","s"],["**",","],["Ġemb","ed"],["Ġphilos","ophy"],["Ġf","est"],["ĠS","em"],["be","en"],["Ġreplace","ment"],["Ġint","ent"],["å","ı"],["Ġd","ating"],["Ġmy","st"],["Ġsc","ores"],["Ġav","ailability"],["Ġcontroll","er"],["n","ab"],["t","ags"],["Ġre","actions"],["ĠP","op"],["Ġnumer","ical"],["F","C"],["Ġb","io"],["Ġn","u"],["c","f"],["um","m"],["Ġqu","eries"],["Ġconstruct","ed"],["C","lick"],["Ġs","outhern"],["Ġf","re"],["Ġint","u"],["are","st"],["Ġlog","in"],["ĠOr","der"],["Ġsatisf","y"],["st","ack"],["Ġme","als"],["b","rew"],["i","y"],["Ġn","urs"],["ĠC","ost"],["Ġgener","ating"],["meric","an"],["mer","ce"],["25","5"],["Ġbus","y"],["o","bs"],["ĠD","u"],["ĠH","IV"],["/m","ain"],["ĠStud","io"],["Ġconven","ience"],["M","ake"],["W","elcome"],["Ġcre","am"],["Ġdri","ven"],["z","ip"],["ol","ly"],["Ġch","air"],["Ġdem","o"],["Ġp","ric"],["ĠM","S"],["Ġdis","pl"],["ĠCon","ference"],["Ġs","ad"],["Ġinterpret","ation"],["Ġreput","ation"],["ag","netic"],["aw","a"],["ĠTr","ump"],["Ġoffic","ers"],["Ġconfigure","d"],["Ġnarr","atives"],["A","I"],["r","at"],["Ġc","aught"],["ag","raph"],["Ġroad","s"],["Ġregist","ration"],["A","K"],["--","ĊĊ"],["Ġout","er"],["ier","arch"],["/","pro"],["Ġdiv","ine"],["ĠJew","s"],["ul","ing"],["ĠG","iven"],["ĠSt","ar"],["10","7"],["ĠAr","my"],["Ġemploy","ment"],["Ġreve","aled"],["\\",","],["Ġv","eter"],["Ġdef","ect"],["ĠGe","org"],["ap","se"],["Ġform","ing"],["ĠYou","ng"],["iber","ty"],["Ġcl","ub"],["Ġat","om"],["int","eg"],["Ġshe","et"],["Ġsmall","est"],["Ġant","icip"],["ĠF","our"],["ribut","ed"],["M","ed"],["ter","y"],["Ġsafe","ly"],["Ġmole","cules"],["æ","ľ"],["Ġs","od"],["Ġfrequ","ent"],["ĠVal","ue"],["in","ci"],["Ġre","b"],["ATION","S"],["Ġhe","ating"],["{","C"],["et","ary"],["Ġl","ens"],["),","("],["Ġtrig","ger"],["Ġsong","s"],["k","ens"],["Ġsh","ut"],["ast","y"],["ord","inary"],["Ġpart","ition"],["Ġcollect","ive"],["ocol","ate"],["G","iven"],[".g","it"],["(","k"],["Ġrequ","iring"],["er","as"],["Ġd","ance"],["Ġed","ited"],["Ġhapp","ening"],["Ġassum","ed"],["I","B"],["ch","arge"],["\"",");Ċ"],["Ġex","clusive"],["Ġatt","ach"],["ĠH","or"],["Ġse","gments"],["ĠE","V"],["Ġsustain","ability"],["an","i"],["Ġle","ts"],["ro","t"],["Ġconcent","ration"],["Ġch","ances"],["ig","an"],["Ġtrans","mission"],["-s","pec"],["Ġfl","avor"],["c","ore"],["as","m"],["com","fort"],["Ġc","ul"],["ĠA","ge"],["Ġcarry","ing"],["Ġhus","band"],["Ġd","ot"],["id","ity"],["IC","AL"],["-g","ener"],["Wh","o"],["d","ist"],["Ġcon","j"],["ub","es"],["Ġphot","ograph"],["Ġmole","cular"],["Ġsc","an"],["sh","ips"],["Ġvis","iting"],["ION","S"],["Ġobs","erve"],["-","class"],["ĠC","R"],["Ġne","ural"],["Ġmet","rics"],["Ġident","ical"],[".","</"],["/","T"],["e","en"],["ĠM","ember"],["Ġexce","ed"],["Ġexce","ptional"],["Ġrob","ot"],["Ġt","ack"],["ail","ing"],["ĠH","on"],["Ġte","ch"],["Ġph","arm"],["ĠCont","act"],["Ġp","up"],["ĠF","ull"],["Ġsp","ark"],["the","less"],["Ġequ","als"],["R","ight"],["ĠB","lo"],["Ġdam","aged"],["Ġcover","ing"],["Ġcount","s"],["ĠL","ove"],["pos","ed"],["Ġdefin","itions"],["Ġabsolute","ly"],["Ġprem","ium"],["%","Ċ"],["Ġnot","able"],["}$","."],["ĠSc","ient"],["IV","ERS"],["B","N"],["ra","g"],["Ġdi","ameter"],["Ġcl","othing"],["Ġdif","fer"],["_d","ata"],["-","man"],["ro","ph"],["ĠB","it"],["Ġher","self"],["Ġcomple","ment"],["Mod","el"],["i","ac"],["Ġwin","ning"],["Ġ",".."],["Ġn","orthern"],["Ġde","als"],["Ġnew","ly"],["Ġsurv","ival"],["ĠPract","ice"],["\\","text"],["iz","z"],["Ġfil","ters"],["AS","A"],["r","ance"],["Ġcomp","osed"],["Ġarr","anged"],["ĠS","n"],["Ġtra","ce"],["Ġsp","ir"],["Ġindic","ated"],["Ġref","lection"],["Ġenh","anced"],["Ġsh","arp"],["ĠJose","ph"],["Ġcomp","rom"],["Ġ&","="],["Ġimpl","ies"],["Ġagricult","ural"],["ell","s"],["et","he"],["Ġund","ers"],["ĠVal","ley"],["Ġple","asure"],["C","o"],["ĠT","or"],["Ġscenari","os"],["Ġel","ig"],["ĠAcad","emy"],["z","er"],["Ġd","raft"],["em","b"],["ep","ing"],["ĠFix","ed"],["M","at"],["_","v"],["Â","¶"],["on","ed"],["st","rap"],["az","ine"],["ol","t"],["Ġmeet","ings"],["L","a"],["U","G"],["re","pre"],["Ġassoci","ation"],["Ġcy","cles"],["Ġm","ask"],["Ġsuggest","ions"],["Ġconvert","ed"],["Ġlaun","ched"],["V","is"],["at","hered"],["and","a"],["Ġev","il"],["-","N"],["U","C"],["Ġsh","if"],["Ġste","am"],["Ġsomew","here"],["_","B"],["Ġstat","istical"],["/","ch"],["11","5"],["/","J"],["V","II"],["Ġc","ra"],["ash","board"],["ĠâĪ","Ĵ"],[")","]"],["og","a"],["}}","$"],["Ġgen","uine"],["........","........"],["Ġhous","ing"],["10","4"],["Ġcorpor","ate"],["ĠChall","enge"],["Ġre","vers"],["ĠS","olution"],["ĠW","elcome"],["Ġw","estern"],["ĠM","ot"],["Cont","ent"],["/comp","are"],["d","i"],["Ġin","n"],["Ġro","se"],["Ġent","ity"],["B","ook"],["Ġf","ault"],["Ġth","ou"],["medi","ate"],["Ġbehavi","ors"],["Ġmagn","itude"],["Ġfacilit","ate"],["Ġdis","h"],["Ġfound","ed"],["Ġmed","ication"],["ĠIm","p"],["ino","is"],["repre","ne"],["ĠM","aterial"],["Ġ--","-"],["ribut","ing"],["Ġto","ler"],["ĠG","ard"],["Ġmechan","ical"],["Ġdemonstr","ated"],["\"",".ĊĊ"],["ig","it"],["_","D"],["Ġfocus","ing"],["ĠCan","adian"],["7","00"],["L","ike"],["ĠS","ite"],["Ġ(","\\"],["Ġcor","n"],["col","n"],["G","R"],["k","it"],["Ġm","and"],["ol","ars"],["ĠP","riv"],["Ġbut","ter"],["B","D"],["Ġint","ense"],["Ġris","ing"],["ĠLab","or"],["/","index"],["H","z"],["OM","E"],["Ġor","b"],["Ġtarget","s"],["ĠPH","P"],["S","m"],["in","ction"],["ari","o"],["11","3"],["Ġoverw","hel"],["R","el"],["a","us"],["Ġcon","sec"],["ĠAl","ice"],["Ġcert","ificate"],["necess","ary"],["ell","a"],["Ġequ","ipped"],["ilib","rium"],["D","ep"],["he","ast"],["Ġmaintain","ed"],["-","per"],["ay","lor"],["Ġexpl","ains"],["Ġmus","ical"],["ne","ys"],["Ġpartners","hip"],["Ġfight","ing"],["-","K"],["w","ould"],["ĠH","ot"],["rodu","ct"],["van","ia"],["th","ink"],["Ġart","istic"],["C","all"],["ro","gen"],["ac","cess"],["ĠN","EW"],["Ġident","ifying"],["ĠApp","lications"],["Ġmanif","est"],["ra","pe"],["Ġal","loc"],["Ġgovern","ments"],["Ġcommit","tee"],["S","H"],["l","en"],["s","hell"],["ĠN","one"],["Ġspecial","ized"],["Ġbrand","s"],["ĠS","M"],["Ġwork","flow"],["Ġdisc","ount"],["Ġprecise","ly"],["*","."],["sc","ill"],["EL","L"],["Ġauthent","ication"],[".","v"],["L","ine"],["s","k"],["st","ra"],["Ġf","alls"],["os","a"],["Ġj","ew"],["Ġdel","icious"],["hy","d"],["Ġjud","gment"],["ĠOh","io"],["Ġsc","ar"],["erm","an"],["Pro","ject"],["Ġmoist","ure"],["Ġs","ed"],["ric","ted"],["Ġher","itage"],["ĠCont","ent"],["S","A"],["ĠC","apt"],["ul","as"],["T","wo"],["he","alth"],["am","ps"],["ĠY","ORK"],["f","ound"],["al","so"],["ul","us"],["ĠJ","e"],["Ġrem","ind"],["Ġbenef","icial"],["Ġintric","ate"],["a","fe"],["it","ivity"],["cont","in"],["ĠK","ore"],["AR","E"],["Ġcy","cl"],["ĠE","D"],["ov","ing"],["Ġmonth","ly"],["Ġden","omin"],["Ġsecond","ary"],["li","est"],["ĠOut","put"],["Ġdut","ies"],["ĠN","ever"],["20","3"],["Al","ice"],["Ġflo","at"],["O","h"],["Ġde","veloper"],["ĠH","mm"],["Ġ-","Ċ"],["Ġres","erved"],["Ġexp","onent"],["Ġcr","ime"],["L","ink"],["Ġz","one"],["Ġw","arrant"],["Ġmet","ers"],["Ġtem","porary"],["Ġcou","pl"],["ĠBas","ic"],["Ġcir","cul"],["T","E"],["Ġgrant","ed"],["âĶĢâĶĢ","âĶĢâĶĢ"],["Ġcapt","iv"],["Ġvary","ing"],["Ã","¢"],["ult","y"],["Ġdist","ances"],["ð","Ŀ"],["ĠC","ore"],["ĠE","mb"],["Ġsur","ve"],["Ġadvert","ising"],["ul","ous"],["%","%"],["Ġaccompl","ish"],["ĠO","ffic"],["-h","and"],["Ġmoment","um"],["Ġcont","ra"],["Ġpip","eline"],["ent","er"],["ĠV","ict"],["Ġdifferent","ly"],["ĠSc","ott"],["ĠTr","ust"],["Ġholid","ay"],["ĠT","witter"],["Ġor","bit"],["Ġclass","room"],["ĠStud","ies"],["ge","x"],["ER","E"],["E","ven"],["H","ist"],["d","y"],["10","6"],["Ġdep","ression"],["Ġplan","ned"],["ĠDes","pite"],["Ġemb","ark"],["/","a"],["tain","ing"],["Ġinc","ident"],["it","als"],["Ġser","vers"],["Ġtechn","ological"],["c","raft"],["Ġf","ractions"],["ĠCO","VID"],["ri","ven"],["Ġcur","iosity"],["plic","ate"],["Ġbi","ological"],["-","us"],["om","ach"],["Ġvari","ation"],["Ġengine","ers"],["W","E"],["]","{"],["Ġre","aching"],["im","eter"],["og","ram"],["Ġwith","draw"],["ĠP","ersonal"],["ĠR","o"],["B","A"],["Ġt","ou"],["od","er"],["ĠB","ir"],["ric","ulum"],["ograph","ical"],["Ġsuper","ior"],["opt","ions"],["Ġbehavi","our"],["Ġrestrict","ions"],["Ġmultipl","ication"],["Ġc","d"],["or","ney"],["ol","ves"],["Ġcharacter","istic"],["Ġtheore","tical"],["ĠSE","O"],["ĠPr","int"],["ĠPl","us"],["Ġyoung","er"],["Aut","hor"],["h","av"],["Â","£"],["Ġm","itig"],["Ġd","ictionary"],["Ġmem","or"],["Ġcheck","ed"],["-","or"],["ang","ers"],["F","ull"],["`","]("],["Ġinstr","uments"],["Ġcoun","sel"],["\"","The"],["e","or"],["ĠT","ri"],["ĠP","L"],["Ġsit","ting"],["Ġnew","sp"],["ĠGet","ting"],["Ġath","let"],["Ġm","ood"],["Ġend","ing"],["erg","ies"],["Ġbl","ank"],["enn","y"],["Ġinj","uries"],["Ġp","od"],["Ġpass","es"],["it","ations"],["Ġd","uration"],["ad","el"],["Ġch","ick"],["Ġprom","inent"],["Ġc","rop"],["ĠF","ar"],["ĠN","O"],["ĠO","P"],["Ġk","ernel"],["ĠSh","ould"],["Ġcompat","ible"],["al","d"],["Ġch","ronic"],["Ġv","oc"],["-s","p"],["Ġmultip","ly"],["Cur","rent"],["Ġg","lob"],["em","pl"],["ist","ed"],["Ġdiagn","osis"],["?","\"ĊĊ"],["A","tt"],["Ġc","ache"],["ĠA","C"],["Ġheav","ily"],["ĠT","imes"],["man","n"],["Ġgradu","ally"],["R","ed"],["ant","ed"],["ĠTh","ank"],["ater","al"],["Ġrequire","ment"],["ou","nder"],["ĠC","orpor"],["Ġconst","it"],["AN","S"],["Ġe","ll"],["ĠS","and"],["Ġr","ural"],["ĠSh","are"],["Ġcollect","ions"],["Ġhydro","gen"],["}^","{\\"],["I","AL"],["im","ents"],["Ġst","em"],["Ġobject","ives"],["Ġk","in"],["Ġbas","ically"],["Ġact","ing"],["ĠWe","ek"],["Ġlow","est"],["Ġs","hed"],["ĠH","ard"],["ĠR","ights"],["Ġrec","urs"],["ever","al"],["ane","ous"],["K","e"],["ou","ds"],["Ġr","ide"],["pl","us"],["Ġpass","age"],["Ġin","hab"],["Ġconsider","able"],["Ġlog","ical"],["T","ake"],["p","c"],["Ġhe","aling"],["ĠJ","ac"],["Ġafford","able"],["Ġha","z"],["ĠĠĠĠĠĠĠĠĠĠĠĠĠĠĠĠ","Ġ"],["Ġaccording","ly"],["Ġpurch","ased"],["Ġhypot","hesis"],["Ġsimultane","ously"],["ist","ing"],["al","ities"],["Ġar","ise"],["Ġpriv","ile"],["ER","IC"],["Ġvol","umes"],["Ġtot","ally"],["Ġcro","ps"],["Ġes","cape"],["IV","E"],["âĦ","¢"],["p","end"],["Ġe","e"],["Ġben","ch"],["plic","ity"],["A","g"],["v","oid"],["irc","raft"],["Ġsold","iers"],["O","O"],["ĠT","own"],["tain","s"],["12","1"],["Ġaw","ait"],["le","ases"],["Ġr","ou"],["oc","racy"],["Ġequ","ality"],["Ġtax","es"],["w","orth"],["ip","her"],["Ġeffect","iveness"],["Ġheart","s"],["ĠS","aturday"],["Ġsh","ock"],["sh","all"],["Ġreve","al"],["a","ire"],["Ġe","ld"],["ĠC","ase"],["ĠF","uture"],["ĠAut","om"],["c","p"],["Ġthe","ories"],["ut","ch"],["Ġor","th"],["R","ef"],["ph","ab"],["Ġpres","erve"],["mar","ks"],["/","x"],["Cont","roller"],["Ġpredict","ion"],["Ġprote","ins"],["s","is"],["Ġp","ill"],["Ġl","oyal"],["clud","es"],["3","50"],["W","ork"],["g","amma"],["ol","ume"],["ĠD","O"],["Ġent","ering"],["Ġsuff","ering"],["t","w"],["Ġtext","ure"],["Ġhead","s"],["yl","vania"],["ĠSecret","ary"],["O","OK"],["]",")"],["Ġdis","p"],["Ġprov","en"],["Ġdevelop","ments"],["Ġassign","ment"],["k","ind"],["y","er"],["est","ing"],["-b","it"],["RE","E"],["des","cription"],["ur","ations"],["urs","day"],["ĠBrit","ain"],["Ġsav","ings"],["-","ad"],["ĠS","av"],["ĠA","ction"],["Ġsh","ares"],["are","r"],["Ġdeploy","ment"],["Ġc","ognitive"],["ul","s"],["Ġwor","st"],["G","it"],["Ġt","ip"],["Ġ(","\""],["rou","s"],["Ġhy","d"],[":","**ĊĊ"],["as","ures"],["ot","he"],["Ġmy","ster"],["A","W"],["as","hes"],["Ġex","haust"],["Ġlog","s"],["Ġfit","ness"],["Ġwild","life"],["P","REFACE"],["m","ond"],["Ġd","il"],["ot","ype"],["ex","port"],["Ġcalcul","ator"],["Ġentertain","ment"],["ra","ce"],["Ġ`","--"],["ĠAdd","ress"],["m","id"],["C","ustom"],["n","n"],["Ġb","orrow"],["Ġdifficult","ies"],["M","s"],["M","ar"],["ag","ger"],["ĠE","vent"],["Ġperson","ality"],["ĠQ","uality"],["ĠPl","ace"],["Ch","ar"],["Ġincorpor","ate"],["Ġhar","vest"],["o","or"],["ĠS","ir"],["ĠSp","ain"],["ĠFrancis","co"],["Ġcomp","ile"],["con","sole"],["ful","ness"],["Ġ","!["],["Ġst","unning"],["ĠN","ative"],["Ġref","und"],[".g","ov"],["Ġin","herent"],["Ġ(","$"],["Ġexp","onential"],["ian","a"],["Ġeng","ines"],["Ġplug","ins"],["Col","or"],["Ġsurpr","ise"],["Ġb","inding"],["Ġbe","at"],["Ġwork","er"],["Ġsol","ved"],["sh","ould"],["ann","ed"],["ĠSm","all"],["Ġstraight","forward"],["em","on"],["ĠF","lo"],["Ġcomple","tion"],["Ġrepe","at"],["ĠRich","ard"],["RODU","CTION"],["g","age"],["Ġb","old"],["Ġth","reshold"],["Â¶","ĊĊ"],["ĠIt","alian"],["UB","L"],["v","ard"],["ã","ģ"],["Ġl","osing"],["Ġocc","as"],["Ġcharacter","ized"],["Ind","ex"],[",","b"],["S","erver"],["m","ers"],["it","ement"],["atch","ing"],["G","HT"],["d","on"],["ĠM","ult"],["ac","on"],["Ġvis","ited"],["Ab","stract"],["N","umber"],["ra","ndom"],["Ġend","e"],["ok","es"],["Ġagricult","ure"],["Ġunus","ual"],["Ä","ģ"],["ĠL","o"],["pl","it"],["ind","ow"],["lic","ense"],["<","a"],["ib","li"],["arn","ess"],["Ġbo","at"],["Ġcomb","inations"],["Ġh","orm"],["ĠH","osp"],["Ġgu","ests"],["Ġben","e"],["Ġfore","ver"],["Ġcirc","ular"],["Ġcelebr","ate"],["ĠConst","itution"],["fol","io"],["E","nd"],["Ġf","iber"],["Ġh","ur"],["Ġevery","where"],["Ġtarget","ed"],["Ġload","ing"],["Qu","estion"],["Ġconvers","ations"],["Ġ{","{"],["Ġsuff","er"],["_","Ċ"],["Ġt","u"],["ain","ts"],["Ġcons","ent"],["Ġdepend","ency"],["Ġb","ought"],["Ġd","y"],["17","5"],["comm","on"],["ĠJohns","on"],["n","ic"],["Ġthe","rap"],["Ġg","em"],["ĠRe","quest"],["M","in"],["Ġh","ol"],["ĠF","ROM"],["nes","day"],["Ġfant","astic"],["ĠH","appy"],["ĠR","ome"],["12","7"],["11","4"],["-m","od"],["Ġr","u"],["ĠO","bs"],["ĠIt","aly"],["Ġover","view"],["b","ility"],["/l","atest"],["eli","hood"],["Ġsto","pped"],["P","ress"],["r","uby"],["st","ruct"],["ĠP","ath"],["Ġex","ch"],["aps","hot"],["Ġmix","ture"],["Ġattempt","s"],["Ġchemical","s"],["fra","k"],["i","ology"],["Ġf","er"],["Ġsl","ots"],["ĠTra","ining"],["Ġt","on"],["ce","ive"],["th","rop"],["Ġsat","ell"],["hy","th"],["Ġcandid","ates"],["Ġadequ","ate"],["ur","is"],["ĠW","ITH"],["ps","i"],["ĠMark","et"],["Ġthreat","s"],["ac","les"],["Ġr","ice"],["Ġmer","ch"],[".","a"],["d","oc"],["Ġin","clusive"],["Ġmet","adata"],["Ġdri","vers"],["Ġsh","r"],["Ġcomput","ation"],["Ġcomb","ining"],["Ġhuman","ity"],["mod","ule"],["Ġast","ron"],["Ġh","at"],["Ġcall","back"],["Ġparticip","ation"],["m","ade"],["Ã","³"],["ĠC","lean"],["ĠL","L"],["âĤ","¬"],["Ġto","m"],["ĠL","iter"],["Ġacc","ord"],["ious","ly"],["Ġmembers","hip"],["Ġprotect","ing"],["Ġcorrespond","s"],["Ġmount","ains"],["]",",Ċ"],["Ġbe","ach"],["ĠS","on"],["ĠAg","ain"],[".w","ikipedia"],["ĠD","ise"],["ge","red"],["Ġtri","als"],["Ġsac","r"],["Ġpand","emic"],["e","enth"],["i","ated"],["et","erm"],["Ġrout","es"],["ĠEar","ly"],["h","ots"],["v","ance"],["ĠM","ove"],["Ġch","ose"],["13","5"],["d","ot"],["v","in"],["ĠPh","ot"],["ĠApp","l"],["y","cle"],["Ġdecl","ared"],["C","ount"],["as","ic"],["12","6"],["Ġcomput","ed"],["-sc","ale"],[".","["],["v","it"],["math","frak"],["ĠHist","orical"],["Ġâĸ","ł"],["Ġt","ube"],["Ġsub","mitted"],["ost","ic"],["let","ter"],["Ġinvest","ors"],["Ġaddress","ed"],["Ġenjoy","ed"],["++","++"],["2","10"],["Ġ","ille"],["Ġal","ive"],["Ġsens","or"],["Ġload","ed"],["Jo","ined"],["Ġtherm","al"],["Ġterrit","ory"],["\"",")ĊĊ"],["F","l"],["Tr","ue"],["Ġsudden","ly"],["t","ions"],["Ġsem","i"],["Ġlegisl","ation"],["Ġinequ","ality"],["<","img"],["ĠCh","anges"],["ish","op"],["Ġsign","ature"],["Ġcl","ar"],["Ġprepar","ing"],["S","earch"],["m","ation"],["ac","le"],["Ġ:",":"],["Ġpregn","ancy"],["d","at"],["ĠE","U"],["ĠCh","ief"],["tern","oon"],["Ġfl","our"],["ĠIll","inois"],["{","n"],["Ġpr","on"],["Ġmeas","uring"],["-be","ing"],["nd","s"],["end","ers"],["Ġcat","alog"],["j","u"],["ĠE","mer"],["pe","ed"],["Ġhas","h"],["ĠComput","er"],["E","vent"],["T","oday"],["Ġdeterm","ining"],["ĠPart","y"],["P","y"],["-d","ep"],["ĠMethod","s"],["M","ap"],["Ġm","ild"],["ĠT","uesday"],["Ġharm","ful"],["N","one"],["Ġinter","vention"],["-","al"],["G","S"],["Ġl","it"],["Ġrec","over"],["(","$"],["Ġbal","anced"],["N","EW"],["\\",";"],["Ġmem","ories"],["Ġscen","es"],["Ġaccur","ately"],["w","er"],["Ġdev","iation"],["IVERS","ITY"],["f","c"],["he","ets"],["Ġk","g"],["ĠAs","k"],["#",">"],["Ġf","ur"],["Ġm","ur"],["ĠSt","ory"],["It","em"],["-w","orld"],["Ġsubst","ances"],["or","ic"],["au","x"],["Ġpersonal","ized"],["ns","ylvania"],[">>",">"],[".","B"],["ou","b"],["am","azon"],["ĠOpt","im"],["ĠCOMP","ANY"],["Ġt","act"],["em","ed"],["Ġencoura","ges"],["ĠAustral","ian"],["-","V"],["\\","frac"],["e","ach"],["ĠR","om"],["ĠSch","olar"],["Ġcolle","agues"],["ĠMart","in"],["Ġg","au"],["ĠF","il"],["Ġsp","oke"],["Ġenter","prise"],["Ar","ray"],["Ġthorough","ly"],["creens","hot"],["Ġconfir","med"],["Ġwor","ship"],["p","ower"],["Ġg","olf"],["Ġdep","os"],["Ġmodel","ing"],["Ġstre","ets"],["c","ut"],["res","ult"],["ĠB","ased"],["ĠE","dition"],["####","####"],["Ex","pl"],["Ġmus","cles"],["Ġpropos","al"],["Ġnot","ion"],["ph","ant"],["ĠAb","stract"],["Ġstrict","ly"],["Ġp","i"],["Ġent","ities"],["vent","ions"],["Ġcommun","ications"],["Ġbene","ath"],["h","r"],["Ġt","one"],["Ġrec","all"],["osp","el"],["Ġbund","le"],["V","ER"],["Re","quest"],["Ġfr","ust"],["BR","ARY"],["g","reat"],["Ġg","ear"],["per","ty"],["ĠCh","ild"],["Ġpol","ar"],["Ġaffect","ing"],["G","od"],["b","orn"],["ĠL","ittle"],["Ġcur","ves"],["Ġmechan","ics"],["Ġact","ively"],["RE","ADME"],["Ġdrink","ing"],["s","it"],["Ġg","un"],["Ġmer","ge"],["ow","ered"],["lo","ss"],["os","c"],["ĠO","l"],["Ġover","come"],["eg","ative"],["ira","ble"],["E","nt"],["ĠL","ive"],["Ġar","rest"],["Ġche","ap"],["Wh","ich"],["Ġpoly","gon"],["rac","le"],["ĠÂ","©"],["Ġpredict","ions"],["Ġindepend","ence"],["Ġaltern","atives"],["f","igure"],["ro","g"],["ib","l"],["int","o"],["Ġcreat","ures"],["ĠF","ield"],["add","ress"],["Ġcontribut","es"],["cap","es"],["Ġint","ensity"],["sh","ow"],["p","ol"],["r","as"],["ors","es"],["Ġdec","ay"],["Ġcal","m"],["ĠAnsw","er"],["?","âĢĿ"],["Ġp","add"],["ar","ation"],["ost","er"],["Ġcred","entials"],["Ġacceler","ation"],["a","ul"],["n","u"],["ex","amples"],["Ġansw","ered"],["Ġvalid","ation"],["_","r"],["d","ep"],["ĠR","oyal"],["rict","ion"],["Ġoffic","er"],["Ġsurpr","ising"],["lis","her"],["Ġappoint","ed"],["Ġop","ens"],["Ġsoci","etal"],["-","dev"],["E","CT"],["G","roup"],["Ġextra","ordinary"],["Ġh","ack"],["am","ber"],["ĠSu","ppose"],["Ġhistor","ic"],["Ġpoll","ution"],["f","ish"],["ar","ters"],["\"","I"],["1","19"],["Ġen","emy"],["ne","ver"],["Ġwrit","es"],["âĢľ","The"],["Ġult","imate"],["Ġret","urning"],["Ġestablish","ment"],["Ġclot","hes"],["Ġd","inner"],["Ġcomp","ound"],["Ġser","ial"],["Ġarri","ve"],["o","z"],["Ġanal","ys"],["Ġbas","k"],["connect","ed"],["j","ava"],["n","um"],["Ġa","ircraft"],["ĠS","DK"],["Ġhe","x"],["ĠI","re"],["Ġev","ident"],["ĠSci","ences"],["S","ystem"],["ĠS","at"],["Ġmov","ies"],["Ġtrust","ed"],["Ġt","ough"],["Con","fig"],["Ġproduct","ivity"],["Ġinteg","rate"],["AS","E"],["Ġmut","ual"],[",","-"],["ab","ases"],["um","ing"],["Ġchild","hood"],["Ġthe","e"],["Ġdist","urb"],["-","J"],["=","ĊĊ"],["Ġt","ank"],["Ġh","all"],["sequ","ently"],["ure","au"],["Ġfin","ance"],["Ġdeliver","ing"],["ĠMus","ic"],["Ġb","att"],["Ġm","ob"],["Ġres","olve"],["ru","le"],["Ġmar","ine"],["C","V"],["Ġl","aser"],["ra","de"],["Ġ[","@"],["Ġi","OS"],["Ġbl","end"],["ĠQu","ant"],["Ġopin","ions"],["L","ES"],["or","ate"],["du","ction"],["ph","ia"],["ie","ve"],["pro","t"],["ĠPro","p"],["Ġcor","relation"],["Ġfore","cast"],["Ġtransform","ed"],["u","ct"],["ri","z"],["Ġown","ed"],["ĠTest","ing"],["Ġpen","al"],["\\","times"],["Ġc","her"],["ĠP","ut"],["Ġmy","th"],["Ġemp","athy"],["(","r"],["Ġto","kens"],["ĠB","udd"],["ĠE","S"],["end","or"],["ĠAl","gebra"],["ĠCon","figuration"],["place","ment"],["ĠEnvironment","al"],["Ġm","useum"],["reat","ing"],["Ġdef","ining"],["Ġgra","vity"],["comp","ass"],["Ġprevent","ing"],["l","arge"],["ver","ty"],["16","8"],["In","it"],["Ġrec","ipe"],["Ġtem","por"],["Ġstruct","ural"],["Ġdef","ense"],["Ġquant","ities"],["upp","et"],["Ġsen","ior"],["Ġsampl","ing"],["Ġpo","verty"],["Ġemerg","ed"],["Ġsubt","ract"],["Ġforg","ot"],["b","lock"],["Ġd","ict"],["ĠDiv","ision"],["<","div"],["Ġmod","es"],["AN","G"],["Ġrest","ore"],["âĢľ","I"],["Ġgraph","ics"],["v","y"],["ad","y"],["Ġal","b"],["Ġinsp","ire"],["Ġhot","el"],["E","P"],["Ġo","scill"],["Ġch","rom"],["Ġpoint","ed"],["Ġbuild","s"],["Ġattract","ive"],["ĠRev","olution"],["(",")ĊĊ"],["Ġn","erv"],["Ġflow","s"],["Ġsatisf","ied"],["Ġinvestig","ate"],["Ġexplicit","ly"],["H","igh"],["c","up"],["ĠH","im"],["ĠÂ","«"],["Ġtell","ing"],["Ġutil","ize"],["form","ed"],["ĠCl","ient"],["cript","s"],["val","u"],["Ġstra","in"],["Ġo","ught"],["oid","s"],["Ġqual","ities"],["Ġbuff","er"],["(",")."],["ir","l"],["ap","ters"],["Ġmac","ro"],["u","cl"],["Ġ","ion"],["ĠL","ee"],["Ġcontro","vers"],["Ġbreat","hing"],["w","rite"],["en","ant"],["ar","xiv"],["Ġmin","ing"],["80","8"],["Ġtru","ck"],["Ġb","are"],["ĠC","LI"],["ĠSc","ot"],["ĠRun","ning"],["/","K"],["C","ON"],["a","ired"],["Ġf","oss"],["Ġ(",")"],["Ġcur","rency"],["Ġdec","ade"],["Ġstay","ing"],["Ġarrang","ement"],["Ġaccomp","an"],["*",","],["E","lement"],["Ġc","oc"],["ĠE","astern"],["ĠN","orthern"],["Ġsh","orter"],["Ġind","igenous"],["Ġsmo","ke"],["'",");Ċ"],["t","ag"],["el","ve"],["ĠW","all"],["ru","ption"],["Ġpr","ide"],["/","e"],["c","hers"],["Ġleg","s"],["Ġsymmet","ric"],["Ġc","otton"],["if","er"],["ĠE","ll"],["Ġautom","atic"],["ãĢ","Ĥ"],["l","ined"],["er","ior"],["Ġh","ierarch"],["ist","ent"],["ĠB","on"],["out","ube"],["Ġun","ity"],["ul","ator"],["ĠP","sych"],["eng","ine"],["roll","ed"],["]",".ĊĊ"],["ant","ly"],["Ġread","s"],["ĠInd","ians"],["Ġprevent","ion"],["Ġexc","itement"],["bre","ak"],["Ġro","cks"],["Ġrec","ording"],["Ġshow","c"],["Se","cond"],["Ġconflic","ts"],["Ġcampaign","s"],["j","i"],["ĠD","raw"],["ip","se"],["Ġform","ats"],["Ġimpress","ive"],["Ð","°"],["Ġg","athered"],["oo","ps"],["Ġfact","ory"],["Ġcontribut","ed"],["Ġintegr","ity"],["B","E"],["w","s"],["ĠM","icro"],["St","ream"],["wh","ite"],["Ġcy","ber"],["ĠE","ss"],["Post","s"],["Ġwe","igh"],["ĠIn","put"],["ĠUn","fortunately"],["oper","ator"],["w","orld"],["ĠA","L"],["ĠF","unctions"],["ĠLin","coln"],["m","essage"],["p","ed"],["ĠOver","view"],["m","iss"],["Ġc","oding"],["ĠW","in"],["Ġpres","erving"],["Ġann","ounce"],["Ġsole","ly"],["ĠW","alk"],["ĠJ","eff"],["Ġrec","ur"],["Ġinc","orrect"],["-","api"],["Ġr","anging"],["art","ed"],["Ġleg","acy"],["Ġdiag","onal"],["ĠVol","ume"],["A","uth"],["ap","ache"],["ĠMathemat","ical"],["Ġg","od"],["Ġu","ps"],["omet","er"],["reg","ular"],["Ġloss","es"],["ĠO","cean"],["Ġass","et"],["irect","ory"],["Ġgrad","ient"],["iz","able"],["Def","ault"],["n","ote"],["iz","ers"],["rop","ical"],["H","i"],["_","re"],["Ġc","rack"],["Ġin","clusion"],["et","ts"],["pare","n"],["Ġprior","it"],["Ġp","m"],["Ġd","x"],["ok","ed"],["Ġlast","ing"],["Ġillust","rate"],["Ġfeat","uring"],["o","i"],["ik","es"],["Ġbar","riers"],["Ġdream","s"],["p","read"],["Ġs","ister"],["Ġf","ir"],["ĠF","R"],["OR","N"],["ĠDet","erm"],["Ġmaxim","ize"],["Ġ",")Ċ"],["Ġb","ind"],["ĠF","alse"],["Ġme","ets"],["ER","N"],["17","6"],["================","================"],["ĠO","x"],["13","2"],["/s","rc"],["Ġbr","ush"],["ĠWith","out"],["n","i"],["ĠW","ay"],["az","z"],["Ġbreak","s"],[">",":"],["Ġ","_{"],["Ġb","atch"],["ul","ia"],["ĠP","i"],["tain","ed"],["Ġque","ue"],["Ġar","rays"],["M","ark"],["ar","ly"],["ful","l"],["15","5"],["-m","ail"],["Ġdispl","ays"],["N","OT"],["ent","ry"],["ĠCent","re"],["a","ver"],["in","als"],["ĠC","re"],["Ġst","roke"],["Ġrepresent","ations"],["ĠCas","ino"],["Ġmarg","inal"],["ĠAr","ts"],["/","u"],["F","ield"],["\\","Ċ"],["ig","er"],["Ġdo","ctr"],["Ġinflu","ences"],["Ġsac","red"],["r","ans"],["Ġpl","acing"],["Ġbl","ind"],["M","ENT"],["Ġvulner","able"],["ĠL","os"],["ĠU","k"],["Ġglo","be"],["}","/"],["Ġst","omach"],["Ġdis","hes"],["ĠPen","nsylvania"],["?","),"],["im","als"],["Ġsp","atial"],["Ġprov","ision"],["Ġview","ed"],["Ġemot","ion"],["Ġsort","ed"],["_","type"],["h","al"],["}","["],["sy","mbol"],["unt","ime"],["ĠChristian","ity"],["Ġhard","er"],["\"",".Ċ"],["og","ene"],["Ġequ","ilibrium"],["Ġcomb","at"],["Ġemb","racing"],["Ġhighlight","ing"],["Ġinfect","ions"],["M","C"],["n","ames"],["ĠS","C"],["Ġhy","brid"],[")$",","],["pe","ople"],["Ġgra","b"],["Ġinf","lam"],["istic","ated"],["Ġuncertain","ty"],["ĠSar","ah"],["c","or"],["Ġde","let"],["ĠD","id"],["Ġcheck","out"],["Ġnavig","ation"],["Ġmist","ake"],["o","ard"],["ĠSt","ore"],["Re","v"],["er","k"],["Ġf","its"],["ĠC","ert"],["Ġautom","ated"],["ĠAg","ricult"],["P","O"],["u","its"],["ĠSt","age"],["Ġgra","in"],["ĠAl","ternatively"],["Ġinstall","ing"],["Ġre","aches"],["Ġse","vent"],["Ġadapt","ed"],["(","N"],["ve","ctor"],["ĠN","C"],["ach","us"],["ang","o"],["12","4"],["ĠReg","ular"],["2","20"],[">","("],["S","ec"],["V","III"],["Ġdef","e"],["e","very"],["Ġf","ails"],["Ġb","ones"],["Ġwe","aring"],["Ġcustom","s"],["ĉĉ","ĉ"],["adel","phia"],["Ġ",")ĊĊ"],["Ġp","it"],["Ġoper","ational"],["ĠH","ig"],["ĠRe","ference"],["T","otal"],["Ġbe","am"],["el","ing"],["requ","is"],[")$","ĊĊ"],["ym","pt"],["\"","\""],["[","]"],["le","arn"],["Ġe","ager"],["ĠH","ub"],["Ġr","anges"],["Ġweek","end"],["Ġencoura","ged"],["ĠSet","up"],["Ġir","re"],["ĠDan","iel"],["Ġj","ack"],["(","self"],["om","ain"],["Ġst","uck"],["ew","orks"],["Ġrec","ycl"],["Ph","one"],["ke","ys"],["Ġfl","ash"],["Ġregul","atory"],["M","AN"],["am","ount"],["ĠE","s"],["Ġsh","ips"],["In","fo"],["Ġcap","ac"],["Ġembra","ce"],["P","s"],["S","w"],["ĠV","iet"],["r","l"],["Ġt","urb"],["Ġp","ipe"],["em","ory"],["lect","ed"],["P","AGE"],["ol","utions"],["ĠS","up"],["nd","rome"],["ig","ious"],["Ġat","omic"],["ĠL","oad"],["az","ure"],["Ġhapp","iness"],["ĠArch","itect"],["at","re"],["Ġh","al"],["ĠB","ase"],["13","1"],["b","en"],["ĠA","st"],["ĠA","ff"],["Ġcomp","ounds"],["ph","ones"],["Ġlabor","atory"],["Ġmir","ror"],["Ġcrim","inal"],["c","ule"],["Ġin","cent"],["il","ly"],["ĠG","all"],["Ġpe","er"],["ĠPr","ice"],["Ġdeb","ate"],["angel","og"],["ĠW","he"],["**","."],["Ġess","ay"],["Ġb","ike"],["Ġqu","ote"],["Ġag","greg"],["Ġresult","ed"],["ĠComm","and"],["\">","<"],["F","R"],["Ġdiscuss","ing"],["Ġfram","es"],["Ġpoet","ry"],["Ġphr","ase"],["T","T"],["Ġf","ing"],["Ġtem","plates"],["Ġpar","agraph"],["Ġoptim","ize"],["il","a"],["du","ate"],["Ġaf","ternoon"],["ust","ain"],["Ġconsider","ations"],["Ex","amples"],["ĠM","A"],["Ġexperi","encing"],["Ġlux","ury"],[">","."],["Ġ","Ù"],["ĠB","ab"],["|","\\"],["load","s"],["Ġgl","ad"],["-st","ep"],["Ġpsych","ological"],["12","2"],["Ġrequest","ed"],["ĠSim","ple"],["sm","all"],["phab","et"],["at","i"],["Ġse","crets"],["Ġ[","["],["Ġforest","s"],["F","unction"],["ĠV","ideo"],["Ġco","at"],["Ġlo","ans"],["Ġconsist","ing"],["ĠExp","ress"],["Ġnutri","ents"],["u","ity"],["ĠN","ASA"],[".s","et"],["Ġjud","ge"],["Ġdenomin","ator"],["b","ro"],["ax","y"],["B","ase"],["ĠM","ap"],["us","r"],["Ġsc","reens"],["Ġgener","ic"],["Ġfall","ing"],["Ġvari","ance"],["ĠMin","ister"],["Ġvict","ory"],["f","il"],["l","ate"],["Ġ","âĢĻ"],["Ġelse","where"],["Ġ\"","/"],["Ġmar","gin"],["OL","D"],["Ġmanufacture","rs"],["S","O"],["Ġnot","eb"],["Ġint","ention"],["Ġte","en"],["Ġconsist","ently"],["B","ar"],["d","ir"],["Ġv","en"],["Ġdesign","ing"],["ĠSh","ort"],["Ġtit","les"],["Ġc","ater"],["ro","le"],["ĠG","R"],["Ġcompass","ion"],["`",")"],["Î","¸"],["ĠF","red"],["ĠF","air"],["ov","ed"],["Ġachie","ving"],["On","ly"],["ĠCreat","ing"],["st","ore"],["Ġus","ername"],["ere","r"],["Ġ[","\\"],["ap","ed"],["ĠPro","b"],[")","}{"],["f","ess"],["Ġmin","i"],["Ġexhib","it"],["he","ro"],["Ġm","ile"],["ĠD","ar"],["ans","as"],["ad","ed"],["bl","ank"],["Ġapprox","imation"],["Rem","ember"],["Ġconsec","utive"],["ort","ion"],["Ġfav","our"],["S","ign"],["Ġgra","y"],["Man","ager"],["d","ots"],["Ġl","un"],["Ġv","ig"],["ĠF","low"],["const","ruct"],["%",","],["-","out"],["u","h"],["Ġth","irty"],["Ġpl","ots"],["Ġtal","ent"],["ĠB","ox"],["----","-"],["17","1"],["Ġprec","ious"],["Ġexecut","ive"],["f","a"],["t","wo"],["ĠO","ptions"],["Ġp","ig"],["form","s"],["Ġperson","ally"],["Ġabs","ence"],["**",".ĊĊ"],["aw","ay"],["L","icense"],["Ġimp","ression"],["ĠMus","lim"],["Ġdis","pos"],["14","4"],["Ġconst","itution"],["Ġsch","olars"],["ĠStat","istics"],["er","ge"],["Ġm","a"],["Ġpr","imes"],["E","l"],["is","ition"],["ĠC","A"],["Ġ[","\""],["int","erest"],["Ġsp","ons"],["ĠGeorg","ia"],["-l","ife"],["Ph","ys"],["i","ations"],["ĠTh","ursday"],["op","es"],["eg","u"],["Ġpract","ition"],["Ġrepresent","ative"],["Ġdiscrim","ination"],["_","a"],["Ġcomp","iler"],["ish","ment"],["Ġent","itled"],["Ġgrow","s"],["Ġpopular","ity"],["ĠExper","ience"],["ĠIre","land"],["ct","ic"],["ĠT","aylor"],["ĠC","r"],["20","4"],["Ġdecl","ine"],["Ġgold","en"],["Ġmist","akes"],["Ġorient","ation"],["I","AN"],["a","wn"],["g","ood"],["Ġint","rig"],["Ġup","grade"],["with","out"],["Ġregard","ed"],["ĠLa","TeX"],["Ġgradu","ate"],["M","ethod"],["r","ants"],["Ġ>",">"],["Ġdeterm","ination"],["Ġfoot","ball"],["ĠFore","st"],["Ġ","?Ċ"],["Ġbu","gs"],["Ġconf","usion"],["Ġphenomen","on"],["=","master"],["Ġw","edding"],["os","ph"],["ĠCo","ast"],["head","er"],["Ġsoci","eties"],["_","h"],["s","or"],["Ġd","ense"],["ra","it"],["âĢĶ","âĢĶ"],["=","("],["av","id"],["Ġrad","ical"],["Ġqual","ified"],["$","{\\"],["Ġc","ats"],["ĠM","il"],["Ġper","f"],["Ġear","liest"],["Ġanaly","zing"],["Ġassum","ption"],["N","G"],["T","W"],["W","rite"],["ĠC","rit"],["ĠN","a"],["Ġpl","ates"],["15","4"],["99","9"],["UL","L"],["ĠKing","dom"],["ĠD","ub"],["Ġinv","ari"],["}}","{\\"],["Ġdat","asets"],["Ġdra","in"],["OH","N"],["Ġpermut","ation"],["Ġhe","m"],["Ġunt","o"],[".","L"],["Ġg","iant"],["val","id"],["Ġbr","id"],["Ġe","cho"],["ĠT","ogether"],["ĠH","E"],["ĠDe","ep"],["Ġgr","asp"],["Ġlif","etime"],["achus","etts"],["/","pl"],["h","older"],["s","ervice"],["{","a"],["Res","ponse"],["-","en"],["Ġf","inger"],["Ġas","semb"],["ink","ing"],["Ġneighb","ors"],["f","ill"],["Ġa","pt"],["oc","ur"],["ia","h"],["ĠSc","he"],["IG","HT"],["f","ont"],["ous","es"],["^","-"],["g","reen"],["Ġent","reprene"],["Ġinflu","enced"],["ĠJack","son"],["Ġrough","ly"],["ld","ots"],["Ġdis","crete"],["ĠFor","ce"],["Ġencoura","ging"],["sem","ble"],["Ġa","pi"],["Ġcapt","ured"],["Ġnavig","ating"],["am","ine"],["Ġaud","iences"],["Ġvacc","ine"],["å","ħ"],["ĠV","en"],["Ġassum","ptions"],["Ġdestroy","ed"],["/","F"],["Ġt","ension"],["us","ers"],["-d","es"],["Ġtri","angles"],["-","i"],["ĠB","ul"],["ort","ed"],["requ","ency"],["ĠB","ug"],["ĠWe","bsite"],["Ġident","ification"],["/","N"],["T","oken"],["ir","y"],["ĠH","ind"],["Ġun","p"],["Ġshould","n"],["Ġrece","ives"],["Ġcy","l"],["ĠPer","haps"],["Ġp","ace"],["Ġin","ch"],["Ġpro","hib"],["Ġch","a"],["ps","on"],["Ġ'","'"],["Ġsing","ular"],["lim","ited"],["Ġd","ual"],["h","ma"],["Ġh","oles"],["Ġcontract","s"],["ĠEr","ror"],["Ġvers","us"],["Ġintegr","ating"],["es","ides"],["Ġm","il"],["id","ers"],["Ġacqu","ired"],["Ġsoph","isticated"],["G","ET"],["Ġl","oose"],["pp","ers"],["vel","ength"],["ĠTra","ck"],["t","arget"],["u","an"],["Ġb","ub"],["row","ser"],["Ġed","iting"],["bo","ot"],["ĠZ","h"],["Ġtreat","ing"],["Cons","ider"],["P","ython"],["S","y"],["Ġo","kay"],["ĠT","ree"],["ac","hel"],["16","1"],["over","line"],["------------","-"],["Ġlik","elihood"],["D","ec"],["S","te"],["pl","t"],["Ġbr","illi"],["net","work"],["Ġsurv","ive"],["(","),"],["u","v"],["ag","rant"],["ĠVict","or"],["?","branch"],["O","mega"],["he","nd"],["Ġp","iv"],["il","st"],["Ġde","com"],["Ġun","con"],["Ġstreng","the"],["Ġcere","mon"],["Ġpredict","ed"],["Ġclos","ing"],["Des","pite"],["Ġalgebra","ic"],["Ġelim","inate"],["B","ox"],["Ġf","ishing"],["ab","b"],["Ġv","aries"],["Th","ank"],["14","1"],["clus","ions"],["Ġflow","er"],["Ġauthent","ic"],["ĠMich","igan"],["Ġcooper","ation"],["Ġk","ick"],["ĠK","en"],["row","th"],["IS","S"],["D","ownload"],["g","t"],["Ġl","iver"],["Ġpe","cul"],["Ġback","end"],["Re","qu"],["ĠQu","ick"],["se","curity"],["eg","ree"],["Ġdef","end"],["aw","are"],["16","2"],["Ġpress","ing"],["ar","se"],["el","ly"],["ĠCom","b"],["Ġdra","g"],["I","Z"],["s","udo"],["t","au"],["ri","ble"],["ĠF","A"],["Ġgr","at"],["ra","id"],["ab","ul"],["ĠD","C"],["Ġinvest","ments"],["ĠUs","ers"],["Ġdeath","s"],["Ġdistribut","ions"],["y","an"],["à","¤"],["Ġt","ur"],["Ġd","ental"],["as","hed"],["Ġde","leg"],["ĠL","E"],["Ġun","e"],["15","1"],["Ġess","ence"],["Ġexpand","ed"],["Ġadvance","ments"],["S","olution"],["o","a"],["z","il"],["Ġhigh","lights"],["Ġsur","ge"],["Ġindic","ating"],["O","ff"],["p","ons"],["Ġra","ising"],["hes","es"],["16","4"],["Ġas","ide"],["Ġab","and"],["ci","um"],["Ġillust","rated"],["ĠWed","nesday"],["-","one"],["/","G"],["{","F"],["}","_{\\"],["Ġ[","'"],["get","s"],["Cont","ext"],["Ġnarr","ative"],["ĠAdminist","ration"],["-spec","ific"],["Ġexplo","red"],["Ġclaim","ed"],["ĠT","ool"],["un","ting"],["ĠUn","ivers"],["Ġmag","ical"],["at","on"],["Ġcool","ing"],["Ġinval","id"],["H","er"],["P","I"],["cept","ions"],["B","M"],["ic","i"],["em","bers"],["ĠU","lt"],["Ġrecip","es"],["M","ax"],["W","rit"],["]",";Ċ"],["ent","ral"],["if","iers"],["11","6"],["Ġge","ometric"],["it","ory"],["eng","ers"],["Ġcontain","ers"],["Ġdescrib","ing"],[",","j"],[".","amazon"],["ct","u"],["ĠL","y"],["Ġcomp","aring"],["Ġ\\",","],["av","ed"],["Ġarri","val"],["T","ube"],["t","elling"],["on","ing"],["Ġle","ver"],["Ġremain","der"],["En","ter"],["ĠEqu","ations"],["Ġemphas","is"],["K","S"],["c","lop"],["Ġ","]Ċ"],["re","nder"],["Ġp","ond"],["ĠâĢ","Ŀ"],["Ġread","ily"],["Ġstre","ams"],["Ġconsist","ency"],["ĠV","eg"],["Ġgener","ates"],["Ġsm","ile"],["ĠEmp","ire"],["Ġw","ins"],["Ġoff","ices"],["Ġcomb","ines"],["Ġexcess","ive"],["Ġbe","ings"],["Ġor","al"],["_","in"],["ĠL","ew"],["act","or"],["ĠV","an"],["/b","in"],["Ġstead","y"],["O","ct"],["m","i"],["m","t"],["t","ered"],["Ġg","ently"],["per","mal"],["the","se"],["ĠK","n"],["Ġend","point"],["ĠRead","ing"],["ĠHam","ilton"],["ĠAdv","anced"],["paren","cy"],["permal","ink"],["v","ation"],["Ġg","ithub"],["ĠM","ess"],["her","ic"],["ath","an"],["Ġrel","iability"],["11","7"],["Ġdemonstr","ates"],["los","ure"],["Ġqu","ot"],["Ġref","resh"],["Ġpat","ience"],["Ġill","um"],["Ġdro","pped"],["Ġcomp","iled"],["Ġsp","here"],["ount","ered"],["/d","ata"],["Ġinvest","ing"],["Ġjo","ining"],["Ġopp","osed"],["Ġvessel","s"],["st","ud"],["ĠE","th"],["ides","pread"],[")","=\\"],["B","L"],["h","ard"],["ter","ior"],["Ġal","pha"],["resent","ation"],["Ġstri","king"],["Ġexpand","ing"],["ĠAng","eles"],["Ġembed","ded"],["æ","ĺ"],["Ġpar","ad"],["Ġinvent","ory"],["er","ial"],["Ġup","grad"],["de","veloper"],["Ġpick","ed"],["on","ia"],["ĠL","oc"],["ong","o"],["fere","n"],["ĠY","e"],["Ġelect","ed"],["Ġport","s"],["*","}"],["Ġappro","val"],["Ġsk","illed"],["Ġmig","ration"],["s","en"],["am","ination"],["Ġal","ert"],["ĠM","ission"],["ĠV","M"],["Ġev","olving"],["Ġleg","it"],["Ġsubs","cription"],["Ġsett","led"],["Ġevalu","ated"],["ĠElect","ric"],["ste","in"],["ĠSaf","ety"],["l","ast"],["u","um"],["ĠC","PU"],["ap","h"],["Ġar","ithmetic"],["-c","ore"],["/","project"],["ľ","âĶĢâĶĢ"],["16","7"],["Ġfil","ms"],["Ġarg","ue"],["Ġwond","ered"],["ĠRequ","irements"],["Ġh","oly"],["ĠSt","ation"],["-c","alled"],["g","le"],["Ġn","ose"],["asc","ular"],["Ġelig","ible"],["-","type"],["H","A"],["Ġy","ields"],["Ġconfig","urations"],["Ġconver","gence"],["T","itle"],["Ġse","ar"],["per","ties"],["Ġenc","ryption"],["Ġearth","qu"],["gress","ive"],[".",":"],["b","untu"],["Ï","Ģ"],["ĠT","ax"],["ĠP","ur"],["ĠB","ooks"],["ĠO","K"],["Ġopt","ical"],["Ġaff","ili"],["Ġwarm","ing"],["Ġdialog","ue"],[">",","],["F","ree"],["b","log"],["p","in"],["ĠG","ree"],["14","5"],["-d","ata"],["ĠInd","ex"],["ou","rier"],["ĠT","ypes"],["ĠThe","orem"],["ĠAtl","antic"],["Ġun","lock"],["Ġenc","ountered"],["ils","on"],["lement","ary"],["Ġp","ione"],["ĠR","uby"],["Ġcur","riculum"],["14","6"],["ĠInd","eed"],["Ġlearn","ers"],["ĠTra","vel"],["1","18"],["i","ov"],["Ġrele","ases"],["Sim","ilar"],["at","ility"],["ri","ving"],["Ġde","ck"],["ĠF","arm"],["Ġun","necessary"],["au","g"],["Ġche","st"],["Sh","ow"],["\\","cdot"],["Ġb","ash"],["Ġ(","#"],["ric","ts"],["Ġmin","us"],["-p","oint"],["ĠStud","ent"],["P","ages"],["Ġhand","led"],["T","op"],["us","al"],["ĠR","ail"],[".âĢĿ","ĊĊ"],["Ġpurch","asing"],["z","one"],["Ġw","ider"],["ĠT","our"],["Ġch","urches"],["Ġcal","endar"],["Ġindepend","ently"],["ĠT","ools"],["Ġan","onymous"],["ĠAl","low"],["17","4"],["Ġdel","icate"],["Ġsimpl","er"],["Ġtrig","gered"],["ĠSen","ate"],["-","ins"],["c","all"],["f","all"],["ol","lo"],["Ġse","es"],["Ġsh","oes"],["ĠY","OU"],["Ġenjoy","ing"],["Ġmanufacture","r"],["W","H"],["ĠCol","on"],["Ġguarant","eed"],["Ġrender","ing"],["[","\\"],["Ġr","ating"],["Ġen","compass"],["Ġev","olved"],[".l","ast"],["Ġsubt","le"],["Ġlect","ure"],["Ġnerv","ous"],["/","y"],["{","p"],["Ġ","ic"],["Ġm","ouse"],["ens","ing"],["ĠApp","ro"],["TH","OR"],["im","m"],["ĠM","i"],["Ġdet","ected"],["Ġple","asant"],["/l","ib"],["D","L"],["b","ow"],["in","ery"],["ar","ia"],["ĠM","ars"],["13","3"],["Ġphys","ician"],["Ġcontinu","ing"],["ĠAv","oid"],["ĠR","ay"],["Ġcl","ouds"],["15","2"],["Ġrun","time"],["Ġconf","used"],["16","3"],["Ġcollect","ing"],["Ġreflect","s"],["Ġstake","holders"],["Ġb","ounds"],["Ġh","ook"],["Ġl","augh"],["up","date"],["Des","cription"],["Ġo","l"],["ra","ined"],["Âł","and"],["ins","on"],["und","le"],["/m","od"],["Ġtravel","ing"],["Ġstreng","then"],["Ġsimpl","ify"],["ĠMount","ain"],["c","ard"],["im","et"],["Ġvari","ed"],["r","angle"],["he","ck"],["Ġh","orses"],["Ġform","ulas"],["-b","uild"],["Ġdi","amond"],["----------------","--------"],["ym","ph"],["Ġhost","ing"],["Ġconv","in"],["b","old"],["m","ates"],["Ġdesign","ers"],["Ġrare","ly"],["ĠHosp","ital"],["A","ccess"],["s","ize"],["ĠProt","ection"],["y","al"],["ä","½"],["Ġcon","vention"],["ain","ing"],["op","her"],["Ġdom","ains"],["Ġsepar","ately"],["ic","iency"],["Ġbut","tons"],["sum","mary"],["Under","standing"],[",","x"],["_","y"],["Ġo","vers"],["ĠTh","ough"],["Ġvari","eties"],["Ġput","s"],["Ġreason","ing"],["ĠWilli","ams"],["S","l"],["l","ass"],["Ġch","amp"],["c","ies"],["c","ure"],["w","all"],["ĠU","r"],["16","5"],["(","z"],["r","ons"],["Ġl","ift"],["Ġdis","aster"],["Ġseam","less"],["L","ocation"],["ors","hip"],["Ġdi","ver"],["Ġsum","mar"],["sub","set"],["Ġpric","ing"],["ĠM","id"],["ĠH","arr"],["Ġsp","oken"],["ĠV","I"],["yn","chron"],["Ġmanag","ers"],["Ġshap","ed"],["RE","D"],["Ġgl","ory"],["v","ate"],["im","a"],["Ġinter","sect"],["mat","ic"],["Ġflo","ating"],["a","ft"],["Ġc","ourage"],["ĠP","S"],["up","on"],["ruct","ions"],["Ġext","ensions"],["ĠCl","in"],["Look","ing"],["M","ain"],["Ġp","or"],["Ġinter","faces"],["15","9"],["Ġchem","istry"],["Ġpros","per"],["Up","date"],["h","ire"],["o","T"],["at","ers"],["Ġfor","k"],["Ġne","arest"],["####","##"],["Ġaff","airs"],["Ġwond","ering"],["Ġperm","issions"],["UR","L"],["Ġcoll","ision"],["/",">Ċ"],["Ġby","te"],["ug","ins"],["fl","at"],["Ġstri","ke"],["Ġbatter","ies"],["Ġille","gal"],["B","el"],["Ġw","idespread"],["st","ers"],["ul","ative"],["ĠL","ED"],["pend","icular"],[")","^{"],["<","<"],["d","epend"],["f","ire"],["Ġ","!Ċ"],["Ġadv","ances"],["Ġleg","end"],["H","ead"],["l","ar"],["Ġt","ong"],["Ġtra","il"],["12","9"],["Ġrespons","ibilities"],["ĠDisc","uss"],["Ġpecul","iar"],["[","["],["Ġt","issues"],["Ġind","ices"],["ĠS","elf"],["ĠC","ast"],["Ġv","oices"],["Ġdev","oted"],["OU","T"],[";","&"],["Ġf","lying"],["ag","ers"],["ĠEn","s"],["/","in"],["Ġb","ars"],["oc","a"],["Ġle","an"],["-","effect"],["ra","form"],["Ġeas","tern"],["-","te"],["E","qu"],["j","ud"],["Ġexp","ed"],["ĠBe","ing"],["ĠOrgan","ization"],["Ex","per"],["ĠChrist","ians"],["Ġavoid","ing"],["Int","eg"],["Ġvict","ims"],["Ġlad","y"],["y","mmet"],["ĠL","ie"],["Ġfe","as"],["Ġtown","s"],["ĠPol","it"],[".","T"],["G","raph"],["art","icle"],["Ġj","uris"],["ĠUn","like"],["gg","ing"],["Ġweek","ly"],["ĠGa","ussian"],[")","**"],["R","C"],["Ġst","ones"],["ĠD","oc"],["Ġoff","set"],["Ġrel","ating"],["-s","u"],["elf","are"],["Ġlength","s"],["Ġclick","ing"],["Ġdownload","ed"],["Ġfol","ks"],["b","ecause"],["t","ml"],["Ġas","sembly"],["Ġsh","ifts"],["Ġen","v"],["Ġarr","ange"],["ĠPhil","adelphia"],["com","plete"],["do","i"],["Y","S"],["Ġt","ons"],["al","i"],["Ġl","i"],["ĠP","ack"],["ard","ing"],["ĠCl","imate"],["Ġnecess","ity"],["bl","ue"],["Ġinspect","ion"],["Ã","¤"],["Ġre","cre"],["ĠC","ub"],["Ġad","option"],["Ġsche","ma"],["rape","ut"],["-","order"],["ĠB","ern"],["ac","hers"],["un","it"],["OR","E"],["Ġcalcul","ating"],["Ġseem","ingly"],["Ġt","ar"],["Ġhe","sit"],["Ġrep","ly"],["EN","CE"],["Ġspe","aker"],["Ġbeh","alf"],["Ġwind","s"],["Ġfra","ud"],["ĠArt","icle"],["Ġtele","vision"],["Ġsp","ots"],["Ġ*","/Ċ"],["24","0"],["ĠEd","itor"],["Ġhabit","at"],["Ġl","ake"],["Ġex","empl"],["lo","ved"],["all","ow"],["ĠN","E"],["ĠSt","ill"],["ĠCam","bridge"],["i","em"],["Ġtra","vell"],["-s","ide"],["-d","riven"],["Ġfree","ly"],["pre","t"],["ĠAg","ency"],["ĠRet","urns"],["Ġclust","ers"],["ĠO","THER"],["ats","by"],["ĠSur","vey"],["*",":"],["S","um"],["T","ON"],["an","z"],["Ġh","ills"],["ag","ent"],["ĠCol","lection"],["Ġfif","th"],["S","ize"],["Ġg","ifts"],["ĠC","ro"],["Ġwas","h"],["Ġpre","val"],["ĠCol","lect"],["ĠCont","ents"],["li","ament"],["us","hes"],["Ġgu","ides"],["Ġtem","ple"],["âĢľ","We"],["Ġshort","est"],["Ġparticip","ating"],["âĢ¦","Ċ"],["ĠExp","lore"],["A","h"],["b","ound"],["ĠM","ur"],["au","ce"],["Ġpe","o"],["ĠRem","ove"],["Ġcir","cles"],["Ġre","gex"],["Ġod","ds"],["15","6"],["13","4"],["-","image"],["f","ather"],["ual","s"],["Ġcount","ing"],["Ġdel","ta"],["Ġmag","net"],["Ġrend","ered"],["ĠColumb","ia"],["abul","ary"],["u","is"],["ĠB","oy"],["Ġle","ather"],["ĠIn","cre"],["ĠPro","blems"],["Ġcount","less"],["Ġobtain","ing"],["Ġcoast","al"],["b","ury"],["16","6"],["ĠAl","gorith"],["Ġfif","ty"],["h","ar"],["Ġdep","ict"],["Ġappoint","ment"],["}","x"],["ï","¸"],["Ġv","ice"],["-s","erver"],["ID","S"],["Ġri","vers"],["Ġbur","ning"],["Ġsus","pect"],["Ġcompat","ibility"],["Ġt","ensor"],["Ġto","oth"],["lo","or"],["13","7"],["Ġsuppl","ied"],["Ġh","ire"],["ĠR","am"],["Ġlog","ging"],["Ġaccept","ance"],["ĠCE","O"],["b","c"],["it","ches"],["om","atic"],["tra","in"],["Ġign","ore"],["(","g"],["4","50"],["ĠF","ac"],["ĠR","O"],["ĠO","k"],["Ġlands","capes"],["ab","eth"],["ĠD","own"],["ial","s"],["Ġname","ly"],["sc","he"],["Ġden","ote"],["Ġowners","hip"],["Ġincred","ibly"],["ura","bility"],["Ġsyn","chron"],["M","M"],["ac","ies"],["Ġprom","ising"],["Ġanaly","tics"],["Ġded","ication"],["E","m"],["on","om"],["Ġpat","ch"],["Ġpast","e"],["iat","ric"],["Ġjew","el"],["L","ong"],["_","F"],["as","i"],["ate","way"],["ell","er"],["14","7"],["ĠStart","ed"],["Ġglob","ally"],["/","commit"],["s","ers"],["âĢ","ĭ"],["Ġst","ations"],["Ġco","in"],["stand","ard"],["}$","Ċ"],["--------------------------------","--------------------------------"],["Ġserious","ly"],["Ġutil","izing"],["Pe","ople"],["y","arn"],["å","Ī"],["Ġh","ide"],["Ġr","ug"],["ĠN","avig"],["fact","ory"],["ĠFin","ancial"],["Ġquadr","atic"],["ĠImp","act"],["_","L"],["{",":"],["ĠC","orn"],["Ġr","hyth"],["art","icles"],["pos","er"],["Ġsl","ide"],["rop","ri"],["ĠInt","erest"],
[...]
